0005fff900170003ffeeffec0007ffec000d
fffd0006ffdfffefffeeffe9fffefffe0011
0015000dfff3000bfff70014000f001dfffa
0014ffe8ffd10003000100340000000d0019
ffeb0007001a001d002a001000250007ffcf
fff9ffe00018ffe9fff8fffeffe5fffcfff9
001d000e0017001900510029003c001c0003
0014fff4ffe5ffe5fffc001e000e0024001d
fff3ffee00000012fffbfffbfff50000000c
00050010ffedffe30026000f001c001e001b
0000ffe50002001200020019fffb0007fffd
0000fffdffef00050003ffe200170008ffe9
ffe8ffd0ffbaffccffd4fffb00230018000c
0012ffef0002000f0014fffe001a00060004
fff6fff2000a000700220003ffe90019fffb
0019ffcdfff4ffe9fff800080000fff0ffe4
ffe0fffd0033ffcbffeb002500160036002e
fffe001a00110022001bfff6ffffffe3fff4
fff7ffc0fffafff3ffe4ffe80010ffcdffdf
001bfff6000dffff00020048ffff001a000d
0006001b0009ffef0035fff500000024fffc
ffeefff6001400010015ffd40002ffeefff6
001f002a0015000e0025ffd7fff80005ffe3
00040012001b000d001c0009000efff6ffdf
fff5fffaffd6ffe0ffd5fff3ffd50015ffe6
00260018fff800330006ffbd0038ffe7ffe5
00260021002e000300170005ffeb0004003a
0015003100030012000cffd60019ffef0000
002e000000000008ffecfff3000fffdaffc9
0000001f0011ffff002a00160004001f000a
00150029fff60000002ffffb001bfffc0000
fff10011ffff00090021ffdbfffefffdffe8
ffbcffe00003ffc7ffcefff4ffc0fff1ffd2
00120004fff100290005ffde0001fffbffe4
002200160000001f0013fff40017000effec
003a0023fff30038fff2000b0042ffe70003
ffb3ffed004affc0ffafffecff83ff8fffdf
00110001ffe0000e0004ffd2000fffecfff1
fff40034003b001a003b0014000500050017
001b004c0008001a0011ffe30008fff1fff6
ffd3002c001dffdd0010000e0009fffd001e
0025001d0021000c002d0000ffccfff80034
ffecfff7fffffff1fff50000ffdbffea000a
00030017ffecfff1000d000afffdfff2002c
ffcfffe40027ffd900000013001b0019fffa
000effffffff0004fffffffc00010007fff0
0014ffe10005fff400060013ffe700280014
0011fffffff8fff9ffde0008ffeb00000017
000c0019ffe60013fffb000bffe9fff80016
0010fffcfff5000fffe5ffe6ffdf000e000f
ffea000c0003fff8ffeafffdfffd0001fff7
00140023002fffe30025001ffff9fff2001f
0002fff1ffd30010001b0001fffd00210011
fff10016000dfffe00090022ffea00110006
fff5ffff0018ffef0005000000120016002e
fff4ffddffd10000fff2ffc7ffee0004ffb9
ffe1ffaffff2ffc9ffceffc7ffd9ffb9ffd1
ffe3fffb0017fff3001f001d000b0022fff8
ffd0ffe90011ffafffe00003ffa6ffbfffa6
ffeeffe6ffe4fff8ffcffff5ffdefffa0018
002700070023fffefff60021fff3fff0ffe1
ffeeffecffdd00230018ffee000a00190003
0008001700010005000e001000190008ffff
ffe9fffbffe30014001d001d000b0027001f
0007ffefffe4000a0004002affefffc1ffea
fff5ffe8ffd2000e0002ffda0003ffff0000
fffdfff5ffdb0018ffee0050ffdd0009000d
ffffffedffe4001c0008ffedfffc00200018
fffa001affe0fff2000ffff6ffdffff90013
fff5ffcfffda000ffff9fffbfff7003c0015
00160004fff3ffff00230001ffe500150005
000a00140024fff4000300070000fff4ffdb
ffccffbeffee003a001f000a003b002e004f
0027001300060012001a00000017001b0005
fff6fff4fff6fff9ffe400080011000a000f
ffd10007fff6ffecffd8fffbffdbffb8ffe6
ffccffe500070000ffabffaeffe8ffbc0017
0009001b0019fff000030000ffdaffd6fffc
ffdfffddfff2fff5002efffeffdafffaffbe
000a0005fffeffd4fff0ffd3ffd5ffe8ffe6
0004ffec0026ffff00190028fffb0022fff2
0001ffe9ffd90001ffceffe3ffe30018001f
fff3ffe4ffccffeffffa001900160016001a
0015ffe7ffe5ffe3ffe7fffafffc001a002d
ffc1ffcc0016fffe001c0026004b00290019
ffe8ffc9fff4ffeffffaffe7000400040024
000ffff3ffdbffe0001b0034003c00420032
fffaffceffdcffcdffd30004000000170019
ffdeffbb0000ffe1ffed0023000e0014001f
001effddffc70000ffcbfff1fff200110028
fff2ffe5ffb1ffcdffcd00130006000a0032
0023ffe2ffe4ffeb00050013000ffff0001e
000ffff6ffeafff0ffd7ffeaffc3fffa0011
0018ffdeffd3ffdb0002ffebfff80019000e
ffd0ffc3ffce0009ffe80000001e000f001c
00020004001700390026000000500022000c
0032000e006000580024001dffe8ffe50014
ffcfffe100160024001200080010001e000d
003dffddff9dffd0ff9cffb3fff2ffeaff97
ffb0ffe9ffe7ffd6ffe90001002e00430034
002400140010fffcfff0000efff50006ffe3
002b0023fff3fff2ffdeffd5ffe1ffe0ffe7
000e0016fffafffc0001ffbfffdafffc000a
000c001cfff9fff3fff2ffc2ffcbffd70002
ffe7ffe8ffccfff8ffc6fff2fff900060015
0016001dffef0006fff4ffccffe5ffd7fffc
002effffffd60019fff0ffedffe1ffdcfff7
002c00030007000dffe4ffd3ffefffcbffe4
000f000affd80004fff2ffddffe1ffd4001a
002d002800080005ffe4ffd0ffd2ffe2ffea
00200028fff7ffedffffffc4ffe2ffe7ffd6
001ffff000140006fff1ffeeffdbffd7ffd5
0028003b00290022ffeeffd20008ffebfff9
002a000000190002ffdeffd8ffe0ffe1ffe6
00290006ffe2ffeeffe3ffef000affe3ffef
00330048ffdf00350011001600090044003c
003e005c00480020002c0020003d00220007
0021fff8fff4fff2ffc7ffe000000004001d
002e0018003400200014000800120027ffda
001cfff6ffe30000fff3ffc2ffd4ffdd0005
ffe400000002000300070009ffe1ffbefff0
000a00390028000d000c002dfff6ffd40019
0008000f000dffff00000004ffcb0000000f
001f002400290023fffafffcffda00060029
0010000b0019ffedfff200080000001bfff0
001bffebffe2000900000000ffe7fff8001e
00350044000e0017fff50009ffd50010001d
001b0015fff0001cfffefffeffdcfff10039
00050024001f001a00080015ffddfffd0004
001dfffffff30007001dffe5ffd000110010
000d00010019000efffe0011ffd3ffe50021
ffed000f0032fff500090042ffe8ffd7ffd9
00320023fff600200045002d000fffff0019
0009001b001c000000060000ffdbffea0006
fff30002000f0007fffefff2ffe0000a0005
0005ffe9ffbdffcfffcaffdeffcbfff40002
ffebfff4ffcc000d0008ffea0028ffef000f
001e000e001effe9001900080000ffef0004
ffcdffc3ffe8ffbbff8ffffeffb1ff95fff9
00170013ffff0015ffd3ffe2ffe900120016
ffc2fff6ffe2ffdcffdc000cffc2ffdf0014
00160022fffefffbffdefffeffe5fffcffe5
fff4fffb0016ffda00190004ffd1fff70004
fffc0017fff2ffcaffe10003ffc200000016
ffd80001000effdcfff3000000070010fff0
000ffffe000afff900180013001f00290001
ffdfffef001fffdbfffc0017ffd1fffcfff1
0016fff0000cffe8fff80014ffe90019fffc
00170010fffb000a000700000008fffbfffa
0011fff30009ffd0ffd20025ffb2ffe70020
ffeb00000001ffee0018001effd90005fff5
ffeafffbfff0ffc5ffe30014ffec00060013
002c001ffff1ffbfff9bffcfffdbff87ffaf
00180002fffdffec00010000ffe00007fff5
00000017000a000000120008ffeb001a0010
001400010007001600210008003d0034ffed
0028004e0008002b0013fff40045ffdeffad
fffcffe40006ffeafff3fffdfffd0005ffec
ffa1fffa0012ffbb002c003bffe7002a0069
ffdeffd80020ffd700280017fffc00240025
00340002ffca001e0042fff30003002afff8
0010ffa4ffbb0051ffdaffc000450012fff3
000cffd7ffdbfffe001affda001b002cffe8
0009ffc1ffd50001fffdffc60012fffcffe2
0020fff3ffeb00200038ffe3000400220012
ffebffc9ffcc001dffffffdb00560013fff9
ffe5ffdf0010ffd80009fffeffe7fff4001b
0008ffcaffb6fffaffecffc200290017ffd0
ffe4ffc5ffd1000efff6ffe00026fff7fffd
0016ffecffb7ffec0000ffe10015002b0008
0011ffd5ffde00370016ffec000d003affe3
004affe1ffd70026002dffe0003c001ffffc
ffe5ffbeffd8ffc8fff6ffd2fff20010fffa
ffffffd2ffd20030ffe9ffd9000f0016fffe
001cffdbffd200180012ffd3fff40026fff7
ffe6ffc9000f002cffd300250059fff20037
ffddffa0ffcaffb6ff90ffdf0004fff3ffea
0002ffc7ffce0029fffdffe500070000ffed
00350002ffe8007000360016005200810041
ffe8ffe1ffc8ffde0001ffdffff90000ffdb
0022fffbffcb00390022001dffdc0021002e
ffe9ffe6fffc004d0005ffe90045004cfff2
002c0017000bffdd0011fff4ffd4ffd1fff9
ffe90003001c000dffecffceffedffe4ffc6
00260008ffc7002800450000ffb600110043
ffe8ffe200010004ffeaffde003f001cffce
ffef0036000a0014fffcffec0008ffe7fff6
0013fffc0020ffeefff00001ffdaffccffed
ffd5fffffff60021ffc800030037ffeaffcf
0023002a002e00000004000dffd9ffcefff1
002e0000ffd500270018ffc4ffcf002f000a
0008ffe0ffc500470046ffd6000a006d003a
ffda0020003bffd5ff9effdf003cffe7ffcc
0002ffe2fff4001e001bffc1ffea0034ffe1
002b002c0005fff40036ffecffbbfffc001a
00000014ffff001ffffaffc60033ffd3ffbf
ffbc000b0047ffb8ff7effd1ffcdff83ff92
001effddffcbfff8000fffda000e0013ffe8
fff1fff9ffc2fff8000efff7ffdf0029003c
00290026001fffd2000afffdffc0ffb8ffda
ffe50007fff30003ffe2fffd0006ffe90009
0000fff8ffff00070000fff4000c00160007
fffdfff9fffaffef0006fffb00030011001a
001400010017000e0012000600210018ffff
0000000300000006ffe4fff6fff7000affef
000affea000cfff90007fffa0001fff9fffa
ffe5000d000a0014000e000d0009ffedfff1
0010ffff0001000c000b002a000bfffe0000
000c000afff9000000270019001f00070007
fff2001b001dffff0001fffdfff0000ffff1
fffefff50018fffb0017fffe0004000effed
fff0000b0002fff2ffe60000001100130000
ffebffd1fffdffdcffc9ffd4000a0000001a
002100200018001d000900220004001ffffc
00160003001bffe400030004fffffffefff1
ffff0001ffe8000cffe7ffe6ffe3ffd1ffda
fff4fff4001fffe2ffecffd1fffaff8dffbd
000500090002001100030005fff7fff30013
ffadffd70007ffe5ffd20004ffd5ffbfffe8
00140000001f0005000c000f00010003ffe9
fff2001c001bffee00000014ffea001dffe8
ffe900100013fffbffea000b00000009fff4
000300040009fffdffee00130001000c0013
fff3001b0018000f0007000b00150011fff6
fff4fffaffed0004ffee000bffd8ffd5fffa
0017fff60008000effe3ffe40003ffebfff5
000200230020fff6000c001f0009001a001e
001efff8001cffeb000a0000fffaffeaffec
00170012ffea00000003fff5fffdffebffea
ffe7001a0021000d00100003000200140003
000d0009000e001afff90014001f0019fffe
000dffeffffa0007fff7fff7fff10000fff6
0005fffdfff4ffe3ffe00000ffeefff90017
000b001a00040001001afff100160019ffdb
fff2001e000300030000000a0000ffe4fff0
fff70001ffff0017000dffde00020003ffcf
fff5fff3ffeaffeeffd9ffcfffe3ffb4ffd5
fff3001300130004fff9000a0000ffd9ffe8
00060033ffe400200014fff8001d001a0029
ffefffef0011fff5ffee00060004fff6ffef
ffe5000ffffdffee0012000b000d0018000f
00180003fff1fffaffe6000cffe5fff4fff6
000f0015002100110012000d000c000dfff6
fffffff6fff4fffbfffefffefff7ffe80001
fffcffe600040010fffa0002ffedfff1fff4
fffd0012000100070027fff3000e000bfff3
00020025002e002000220017001300070013
fff5fffaffe3fff7001afff3ffe5fff1fff8
ffeb000d00000012000d00070001001afff6
fffb0013fff1000cfff90004fffb000dfff1
fff00006000000120012ffea0005000fffed
fff8000d0005ffebffef00150014fff5fff3
ffdbffcfffeeffaeffe7ffd7ffc6ffc60002
fffa000e000cffe500140010fff1fffe0008
0008ffef00090021fff8fff200160006000e
000d001b0022001f001a0008000a001affe5
0012ffef0007fff30019ffe1ffe2ffbeffbf
ffebffebffeefff90012000cffe7001a0015
fff6002700390011002b00010028fffeffc7
0000001400010007000e0004001e001e0018
ffdfffe4ffdefff3fff4001900190016000b
ffd5ffd7fff5ffe5fffe000e001000040002
ffd4000f0024000900140019001e0000ffde
ffd1fff5000600000001002a00050005000a
fffc000cfff20016ffdaffdeffedffdeffdc
fff6001400220006000affff0007ffecffb5
ffe6002e00470026002bfff6002bffedfff1
fff40012001f001c001300170018000fffdd
ffd6ffff0008001effff00050008fff1ffc1
fffaffec0013ffea0010002a00240017ffef
ffe9000d0002ffe900060010000c000afff0
fff2fffefff8fff9ffda00010006fffe000e
ffbbffc4000fffa4ffe90036fff300080019
ffccffef0003ffe1fffc00140003ffe5fff9
000f00270010002c0007ffe60017fff7fff1
001e0018001c00100012ffe9ffffffe2ffba
005800310019002500400014001effe2ffbb
fff5fffafffdfffdfffbffe50014ffd1ffd7
ffcdfff4ffedffec0011fff9002a000dffcd
0011002d004a004d004200100018000afff3
fff3ffbd0000ffe5ffeb0008ffe3000c0011
fff4ffe7ffebffe0ffdcfffcffecfff3fff6
fff1ffdbfff9ffd6000b000300000018fffe
fffb0007000effccfffa0011fff4fff7000b
fff5ffeffff3000ffffdffe5002cffffffdb
ffd50015002dfffa001b00010016fff10000
ffef0004ffdd0009fffe0004002400030015
ffef000c00210000fff0fffb001bfff6ffef
ffdb000c001e0003fff9fff90023fff20007
ffdeffdbffeaffc9fff60000fffffffd0014
fff3ffe90022fff1ffed0013001800020021
ffe8ffdcfff8000bffeb001dfff7fff8fffb
ffedffbeffcfffacffbfffe7ffdfffeeffd8
ffddfff5000affdefffd00120011000a0010
fffc0005001f000b0009ffff0029001e0000
0003002f001f000d001f001b0008002d0004
0045000bfff1004500170001001f001bffb1
ffe7000bfff1ffeb0000ffff000cfffdffe2
002cffd2004affd800140033fffb0038002d
ffcf0015000ffffd000a0018003a001b0000
ffd400090019fff1fffd0018000a0005fff7
000d00040001fff4fff6ffebfff4000afff8
ffeb0021001b0000ffff000e0012ffed0014
0016fff7000effed0010fffb0009ffeffff3
00000002fff8fff10000000b0000ffd5ffd3
00210015000d0012fff1ffec0001fffbffd6
ffe9ffee001bffe8ffff0022fffefff30013
000400160012000f0012fffc0015ffff0016
fffcfff700170003ffff000a001d000cfff6
ffffffebfff4ffdd000a000effebfff30009
ffe30012001afffc00120013000f0014fffa
ffe6fffc0012ffd80003001f00070000fff2
fffbffdffff6fff3fff3fff7fff7fffb001b
0014fff90026ffe3fffe0012fff9000dfff6
fffefffafff0001fffeb000e0014fff1ffea
0009001dfff00013fff4ffe70029fffeffd0
0028000e00170014fffbffc2001efff5ffd7
0010fff90007ffeefff500070002fff8ffe4
0001000e00050025000d0002000cffe9ffc6
00150005fffaffff0015fff6001a001cfff6
fffa000900010010001f0026ffdf0001fffa
00050016ffe800130018ffe5fff0000b0033
fff50001001afff0ffe3000bfff3ffe6000c
0008000effe90011000cfff400180011000d
001b0023fff6000d001a0016ffdaffee0022
00040008ffec0012fff1ffe10003ffeffff5
0015ffff000e0019001800390018fffa001b
000bfffa0004fff0ffe1fffcfffa00090015
fffb00100009000cfff9ffe8ffe5000c000a
ffe8ffec00080000fff5ffec000f001d0010
0007fffa00130003fffa001d000affff0024
000b0007000bfffb001e0003ffe100090030
ffe7fff80013000cfffdffeb003100180034
fff7fffefffb000500010000fff8000b0021
000100290008ffe6fff5fff0ffeaffdffffc
fff400060000fff5ffdeffd4ffe0ffc3ffdc
0006fffd001c0006ff9aff98ffedffe3000b
0000fff10000fff5001e0003ffd7fff5000b
fff40009ffdbfffcffcdffcbffc1ffacffc9
0027002e0018000effe1fffb0000ffe7ffe4
000f001cfffdffe1ffd8ffd7fff6ffd0ffe8
002f000bfff4fffffff5ffecfff90007fff9
0007ffeeffdffffc00050022000b0019002b
00180012ffd1fff6ffdf0021ffca00060016
fffa000200130013fffa000e0024000ffffa
000effe7ffd9ffda0013fff600120011001c
fff9ffd1ffd0ffdeffc10034ffdffff50000
0028fffdffc5ffe800030010000c0024002b
000ffffbffe4fffcffed00180021fffd001b
001afff6ffc8ffe9ffe00011ffefffd90029
00110016fff4ffebfffe0014000c0006fffa
0022000f0010ffdc000bffdcfff8fffafffd
002a002cffe30014fff0ffd6ffcdff98ffd3
000ffffc0007ffe2ffed0016fffb00190013
000f0009ffd5ffef00130002001f001a0024
ffccffebfff3fff700070011001c00150000
001d002c001800500044ffd500190017ffe4
fff4ffe50000000a000ffff00029fff60022
fffd0000fffaffdcfff3ffbb00080013ffdc
fffbffdcffccffd500110025000300270042
ffe9fff70001ffdf0028002fffe00000ffec
fffcfff9ffec0014000bffe7ffec0000ffe3
000cfffd000ffff7001d0015fffd001dfff2
fffd0004001dffe4000bfffdfffcfff1fff0
fff8fff4fff9ffeb0002fff80002fff3000e
001f0011fff5001100170004002200160007
fff3fff5001300000013002bffcd0005003e
fff9fffb0005fffafff7fff8fff400130003
0005fffb0000fffc0001ffe80016ffe3ffff
ffe0000d0033ffef0005fffaffe0fff50024
ffe40013fff8fffafffe0009ffe6001dfff5
ffe3fff70001ffedfff9fffdfff50018ffe4
ffe9ffe9fff3ffe5ffcdffedffdfffe6ffff
0013001cffee00070011fff6ffe200000001
00130027ffe9fff400160000fff3ffed0015
003a0021fffd00330004fffb0024001efff8
fff6ffc50013ffd1ff8effd4ffbaff9fffe5
ffe40014ffed0008001bfffb000dfff6ffee
ffea0025ffe4ffe90039000efffb004b0001
00000022001cffee001bfffbfff8fffdffea
ffe2001f000e000c0021ffe40017000cffc8
0020ffeaffe90007fff4ffdefffe0000ffb5
00050012fff4002e002f0002000b001cffcc
fff7ffed0007fffbfff3fff90005001fffcf
fff2ffeaffdeffecffe7ffc3fffcffccffce
00180011ffdc0032001fffba004effbcffd7
ffd1fff2ffd8ffdfffd7ffe8ffe8ffcdffe9
001e0001ffda00210010ffe00035001dffa2
001e000fffc1000d0000ffd10022ffdcffe1
fff6001f0011001e0009fffa00020018fff8
fffe000cfffd00320028ffc80034001dffa2
0000fffeffe00004000dffcf000c0017ffc6
fff0ffcf0001ffd2ffe9fff3ffbfffc9ffad
00080005ffde0033fffaffcc000a000fffb9
0018fffcffe400320025ffab003d0008ffbf
00440036000200200020002b000afffd003e
ffe0ffbd000effb8ffed0021ffea00340027
0012fff6ffe4000ffff6ffbc001effd5fff1
001f0029002a004b005a0010004b0045000e
00160013ffb80011fffdff940041ffd9ff97
ffe1001a0021ffc7fff30007ffc8ffd3ffd2
002a00360026fffe0002ffffffcaffef0003
001dffeeffe100110003fffdffcaffe2000e
001d000effeffffafff3fff7ffebfff5fffb
ffdc00040037fff9ffe100240000fffcffdb
fffb0001ffde001300100000ffd9000bfff4
001c00070022ffd8fff30016ffe4ffbefffa
0000fff8ffecfff1fff8000cffdb0003fffb
0003fff900020016ffeafff5fff1ffe5fffb
0023ffe4ffeafff9001afff1ffe1ffe8002b
fffa0009001b000000030002ffc9ffea000f
000e0038000cfff0ffff001bffd8ffdaffdd
00390008ffe4003a00310043ffed0018003c
001b0021001bfff400040001ffd7fff8000f
00090003fff1ffee0003ffe8000efffb0005
0007ffe5ffdeffecffe2ffd5fff0ffdbfff4
0002ffcbffd10006ffeeffd8000c00000001
ffff00000015ffe7fffb0002ffebffdeffde
ffe2ffe90002ffdeffefffe4ffcfffddffe8
ffeeffedffe0fff70001ffd0fffe0013ffe2
ffecffe2fffb003e000c0015001e0017001e
fffe00070025000bfff50006001fffe5ffed
002100210011fff90001ffd7ffeb0014ffff
0004002a0022fff0fffdfff1000bfffefff8
ffdbfffcffc3001e0025001b004800300034
fff700070009ffdbffe1ffe80001fff00008
0040004f0028fff0ffd6ffed004f003b0013
000b0018001efffaffdaffdefff8fffa0006
ffe20005fffdfffaffe1ffcb000d001a0009
002d003f003600000008ffc3ffe8fffb000c
0020000dfffcfff4ffc4ffdc001e001c000d
ffe00006fffa0006000dfff7004000170000
002c0053005a000e001d0020ffdcffb80003
0009fffd001c0009ffe40003001affec0001
ffebfff20006ffff00110012000f002f0020
ffe6fff4ffe3fffdffd6fffafff80021000a
ffc3ffef0013fff700280035ffc9ffe5003e
ffd6ffcfffcd0015fff5ffee000b00310013
fff0ffb4ffcfffb1ffccffcfffdeffeeffff
000e002800070000ffeefff10001002f000c
000300200022001800210008ffeefff3fff8
00000001fff600220029ffe1000d000d000f
00120017ffeffffdfffdfff2000c000cffea
fffb0006ffebfffd0013ffedfffe000e000f
ffeb00170017fff200180019ffe2001c0019
fffdfffc0007000cffdd0016000b00050006
0011002f0010000e002d00210004005a0025
fffa0016fff2fff2ffe7ffddffe4fff60000
fff7ffe6ffef00020000ffe0ffff00010015
fff4000effebffec0004fff6000c000dfffd
00140019ffdefffa00090003001dffeffff6
000b000000080000002200220018000f0010
ffb7ffe1ffdffff40010ffd9000400100026
0011000fffe0ffed0001fff0ffe6ffff0006
0020001efff30010fffa0003fff9ffdeffe7
00370011fffc0000fff6ffd8ffeefff1fff8
ffc1ffc4ffcaff86ff94ffd2ffa900040018
0011ffecffd8000f000b0012ffea0000001a
001f000afff3001ffffb0005000afffb0005
fffd001c0000ffe9ffdf0015ffdfffe30005
00270044004fffef000d000ffffd000affd5
00010006ffe60007fffc0013ffeffffe0009
0005fff5ffdb00030010fffe0002fff8fff0
000d0007ffd3fff70015003dfffb0027001a
fff500000043000b0003001fffe0ffd6fff0
ffe8ffd9ffbaffe6000a0009ffeafff50011
001d000d0018002900640055ffd800000011
000effddffbc000efff9001efff70012fff9
0010ffeeffc1fff700040019ffcbffe00015
ffd8ffd1ffb8001a000f000f00040030003a
ffffffefffeefff7000d0026fffbffea0004
00010028002dfff2000d002900110017fff0
ffc2ffe8ff93002c0025003c001c00530072
000dfff7ffde000f00030000000300020021
ffee000d0001000a0007ffeafff7fff10000
003ffffdffe60007ffe70008ffdfffe0ffef
ffc0ffb0ffe6ffaaffbf000effb1ffc80027
00110014fff50007fff10018ffd9ffe2fffb
0004fffbffe0001dfff6ffc7fff0ffefffa4
000fffecffc4fffaffc8000dffbefff8fff6
fff500060016ffd80018002affe000020030
002e001100010008000c000d0000fff9ffef
fffa00090009fff50009ffeeffe8ffef0004
000f0015fffdffe8ffddfff5ffedfff90016
00010016ffe4ffd2ffcafff5ffd1ffeafffe
000d0021fff70010001400070021002dfffc
000dffdafff40019ffb6fffdffe9fffcffec
000cfff70008ffe2ffec0002ffe8fffd0000
0005fff4ffda00200000ffd5fffa0023ffd2
ffe6fff90035ffd3ffdefffeffd2fff70022
ffe100000009ffcb00140029ffeb0000ffff
fff80020fff3ffdb0010002fffca00000016
000affe4001cffebfffcffe30015fff5ffed
00140028fffcfff4fffb0007fff5fffa0006
0016fff5001cfff600000002fff80006ffe9
000a0013ffd100300030ffe10039000dffe9
001affddfffb000dffbbffbc0008ffd3ffd7
fffdffe70005fff60014ffdffff100000009
ffd400000030ffd20018005effcf0037005d
fff80007001effea0003ffd0fff7fffaffe0
0012ffe8fff1004a002f00020005001a0027
fffb001b00280018fff8ffe2001d0034fffa
ffff002000120006fff3ffdd001e0004ffe1
fffc001d0022ffffffd3ffc40014fff8ffe3
0014ffdfffcc005400230000002000480024
fffcfff90013ffd6ffd4ffcf000dfff9ffef
0007002a003cffe6ffe2ffe00027fff9fff6
fff100100002fff0ffd3fff5001affe7ffea
00110028fff5fffdffefffd9001b00080009
0025001d0022ffedffd7ffd00028ffcffff5
0011fff4fff4fff30001ffe8001c0008fffd
fff0ffe50016001a0018ffcd0020002d0018
0010003f0049fff8ffe9000900180000ffd2
ffe3fffc0025ffeeffffffdaffff002b0012
fff80013fffc00000016000a0017fffc0013
fffafffcffe3fff0ffcbffdb0021fff5ffe2
0011003b001efff7ffb1fffeffcaff97ffb1
fff8ffefffd6002efff3ffdf001d00320030
ffd4ffc9ffdbffebffbdffab0011000affe9
000d0026ffee000bffeb00020007fffffff3
0035fff6ffe2002c002e002afff80020003e
ffbfffd8ffca0010000fffe5003c001b0039
0000ffddffdc0001ffd6ffe5ffefffee0005
fffeffe8fffc00180006ffcdffff00090017
0016fffdffd2002c00370022ffd80004002f
0000ffe1fff3fff1ffdbffd7000f001cfff1
0012ffe8ffde0045001fffd2001f001f000f
fff7ffd6ffe70017fff6ffde0019fffefffd
ffd5fff1ffc70016ffecffd7ffedfffa0010
0000ffecfff0fffbffc3ffd2001200230009
ffe5ffddffe70019fffffff700070025000e
0002ffefffc300330023fffe001f0034002a
ffc10015fffe0009ffebffb700620028000f
ffdbffdcffc5fff8fff0ffdb0007000f0015
001fffe9000c0008fffaffeefffbfffffffe
fffffff8ffe8000cffd6ffccffed0007fff2
00060003ffbbffdcffddffb9002f0008ffdb
00180005ffba000800160000fff100000014
0003ffcfffd60031ffe80001001000120016
00150011fff0ffeafff1fffbfff6fffa0009
00140000ffcd000fffc6000cfffbffed0029
000e0000ffe20009fff7fff8fff5fff1ffe2
0013ffe1002effeb0010000f0008001e0005
0007ffeefff8ffd300000003ffdd000e000a
fffd00020010001a001cffd40014fff6ffc1
ffe40001002dfff9002b001800050008000e
0010ffdb002affb7002200000025000afff8
001effcc0021fffefff20022fffafffc0014
ffeaffec0027ffcd0011000efff70019fff7
002cffffffe7ffffffe2000bffe4001a0005
0025ffe8fff8000affea000cfffeffdf001b
0027fffbffdf000b0002fff70000fffb002b
003ffffaffca001affb0ffd6ffc1ffb30005
0000ffea000ffffdffedfff4fff7fffb000a
ffe1ffe9001fffe3002e00010027fffbfffa
ffce00000027ffe4001300050000fffa0010
003e0049ffb00042ffe10000ffdeffd30005
fffdffddfff5fff8ffd90004ffec000cffe7
0047fff8000b000affb00054fffc00450066
0017ffd80041ffa4003700300027003c000e
ffd3ffe10022001f0027000efff9ffe6fff4
fffe003b0025ffe9ffd0ffe2fffd000e0009
ffef001bffeeffdeffe9ffdffff500000005
0021000dfff1ffd2ffbffffc001900350037
ffcaffc4ffe5003b002a001a001200270002
000e0012ffe2ffc90000fff9ffe2fffbffea
001f0022fff3fff3000e0016006c0046002c
0014001affdfffd9ffe0fff600190013001d
fffd0013fff30000ffffffe4000e002c002c
004b00040021ffc1ffb3ffcb002900340019
00060002ffdbffcbffd0000e001900340023
ffc3ffea0002000f00120019001e000affe7
0039004c0032ffc4ffc3ffd1003b0044002b
000d0008fff6ffe8ffd0ffe7fff900020000
0011ffd600050023fffbfffe00130013fffa
ffe40007ffdeffcc0010fffcffe2fffcfff7
0005002e002effc2000200080017001e0025
ffdbfff6000600220026000f0023fff0fffa
ffd9fffb0013ffd4ffe3fff70027000a0005
fffa0004ffd40004fff2fff1002500200031
fff3ffe000460005001d000500170014ffd7
ffcdfff70024ffe9ffe1fffe00170000ffea
fff60004001b002c0000000e0012ffe30001
fffa00220015fff9002400000022fff8ffdf
0017fff80006000affdffff3ffd70000ffe8
fff300290000001cffd20003fff4ffe6fff6
00050032ffd3000f0019ffec0009ffe8ffd4
0014fffdfff50017001b00100020ffef0005
ffe90009fff7fffe000a000affdfffed000d
0017002d000a002c0011000d0016ffee000b
fffcffeeffeb001ffff4fff0001affdcffdc
0015fffa0028fffa001400080006ffeeffe1
ffd0fffd0010ffd0000900100000ffe00025
fff2000700170016fffdffecfff8ffe8ffe0
0030000a00010030fff6fffa000a00080004
ffe90009ffeb0014ffe7ffcf0009ffd3ffce
ffeb0014001affe5fff8ffd2ffceffb6ffed
0000000c000a0000ffebfff3fff8ffe9ffdf
000ffff30019fff600220000ffee000bfff0
001a0035ffec003b0017ffd0fff6fff7fff4
0030fffd0006001f000dffeeffea0008ffe6
ffecffdeffe50018fff7fff7002000200013
ffe7ffeaffe4fff7000700190024ffeefff1
ffdcffe9ffc000130007001c001d002f000e
00210000fff8001c002f0003000bffebffe0
0000fffa0008ffff00130002000bfff7fffc
ffe5fffc000f00250031003e0030002cfff3
ffdafff5ffe0001000090015001e00220002
ffd8fff8ffdc0002fff80003000100170019
ffffffdaffb5fff7002200030026001e000e
ffe3ffd0ffe10000000100080000fff80005
000afff4001d001dfffe000c0011fff4000c
ffe7ffc4ffbb0018fffd00000030001a0008
ffecffe3fff6000f001dfff1ffedfffd000f
fffc0004000d0011fffeffffffea00130003
ffe4000a00120001fff80013fffeffcaffc5
fffb0008002dffd2fff0fffe003b0005000a
fff2ffed00100006fff3000c00050008fff5
fff7fff9000c0022ffefffe50013000fffe3
ffe9ffd2ffe4ffe6002a0017001d00040009
ffc3ffed0028ffb2000d001fffeafffafffd
fff3000a0012ffecfff1fff7001200000006
ffd100170002ffd70014001dffdbfff10014
ffe300010015ffe5ffdeffedffe5ffe80012
fff0ffea0004ffe3ffd70005fff600080014
0018002d0006000e0027fff6fffe0012fffc
ffecffdc0002fff1ffd0001effedfffa0037
fff1fffc001500020008fff3fffc0000ffe4
00170014000c000d0018fff9ffeffff60014
fffaffdb0013ffc0ffeffff8ffd1ffed001c
fff400000004ffe000140000ffe1000c001c
ffd9fffdfff9ffd200000001ffea00090003
ffd5ffc5ffccffcdffd9ffeb0002ffeaffd9
0002fff60011ffe0fff9000e000400150009
fffd0012fff6ffed000fffeeffdf0003fff4
0032002400140013000900030019000afffa
ffe0ffbdffe4ffaeffd4ffb9ffdeffa2ffa8
0016fff2000bffea001400040015001a0009
003000510069000900200034fffa0021000e
fff000170000000500090001fffcfffbffff
fffaffe3ffdd00040018001ffff7fff8fff7
ffefffdbffcbfff6ffff000f002200030018
fff9ffd7ffdcffe7fff6fffa001700190001
ffe4ffdfffdcfffafff90016001c00270029
ffff000400060048003600280006001affff
ffd8ffd20024ffefffef00070018000dfff3
ffc2ffbfffe8001a002e003b00370026fffd
ffd2ffd20001ffd0fff8001c001b000d0003
ffdfffea0014ffff00270035000200180014
ffd0ffb6ffd1ffe5fff3ffda001900020008
ffcdffd1fff0000a001efff60011001c000e
ffd5ffc8fffd0020fff9001400290005fff1
0017ffcaffabffffffc8ffca004d0008001a
fff2ffd4ffe50000fffe0005002000220030
ffdcfff4000e001a001f000b000d001b0016
ffea00100025fff20014fffd001affe3ffe6
0025005500160002fff1fff4002b0008ffeb
fffb00090023002b000b002f00190032002d
ffbfffccffedffe7ffcbffdcffe4ffd2ffca
ffeaffd7fff9ffe3002b002b001e00120003
ffb5ffc8ffe3ffdcfff0fffd0001002effff
ffd7ffe70007fff1fffe0009fff1fff40006
ffe40000002d0006002a000a001c0009fffb
fff0ffff0006ffd90018001400150010000c
00100010ffe90005ffd0ffe5fffcffe2fffc
0018001e0012000c0010fff100000004ffe3
ffd7001a002a00230032002000170006000d
fff3fffc00160021001a000a001afff3fffd
ffe3fffefff5001a0012ffe0fff3ffe1fff6
ffe800010026ffe80021ffff0001000b0001
ffebfff8001f000f00070011001c00020003
ffbf00010007ffd700010024fff90024000b
ffbaff9affe6ffabffc2fff4ffdfffe10019
0000001affff00020016ffff000e0013ffee
001400200012002900200007001affdfffff
fffc0023fff900010023fff6000effe4ffa3
0057002e002cffef0001ffc7ffd1ffcbffbc
fffdffea0013fff6000bffd8fff0ffe7fff7
ffb600150017000f001c001800300033ffcc
00110017003a002f004500140028fffcfff8
000d0010fff50013ffe4fffeffe2fffdffe8
0017001afff600290012000cffd9fff0ffd5
0000000100170013001e002bffd5ffe6ffe8
002a0003001c001a0031001affd1fff5fff1
000f00130013ffe8fff4ffd00009ffd6ffe7
fffb000d0028fffefff9ffeefff7ffe7ffd8
000800010029fff20003001afffaffd0ffc8
002bfffb002b001d00220010fff2fff7ffe0
001ffffa0006000200160008ffe0fff4ffc1
fffc000900140023000b0023fff8ffe1ffc9
0029002e002e000d00070003fff2ffd6ffe8
001d00280001fff1000fffdbffc5ffccffc9
001100190017005d004d00190009001affee
00090000002700050016fffeffdafffeffc7
0007001a0004ffee0017001efff0fff0fff5
fff3ffff0020ffd5ffd4ffc0ffd2ffc7fff5
000900020017001afffc003300150020003d
001dfffa0009000bfff3ffcfffffffe5ffd2
002a00320035fff4ffedfff6ffccfff0fff7
fffbfffa0027ffe5ffe60004ffd6ffc3ffe3
ffe9000f0029ffb3fff4002affa8fffb0018
002efffe000efffd00140007ffff0005001e
ffdc0007fffbffd3000d0019ffe1fffb0009
ffef0007ffe9fffcffdb0007ffddffe20001
fff1000dfffbfff9ffda000efffafff8001a
000f00060025ffef00140014fff9001bfffb
fffbffee0010000fffeeffea000fffec0002
ffe5001c001c0000001dfffcffe40007ffef
000e000200090008000dfff3000e00040007
fff7fffafffdffe6fffa0004ffd5ffe60006
ffd100010003ffe4fff7000a00020007000b
ffd00012000cffc9fff6001effdefff7001f
ffebffa7ffc4ffc4ffb1ffbefff1ffe3ffea
ffff00050008ffe9000bfffbfff10009fff6
ffd7001400220004ffff001d000f0006fff7
0009001b0016001400180028002700080024
0001ffbbffcd0014ffb3ffbd001fffc6ff9c
000a0013001bffe7fffe0015000d0017fff0
0007002a002fffb7002a0027ffe900270020
fff10014001b0014000bffff000500070001
fff6000afff0ffd8ffffffddffde000f000f
ffe10002ffe2ffc6ffff0019ffe9fffc000c
ffd5ffea000dffea0023002b00190024fff8
ffd4ffd20019ffd00010002c0018001affec
ffd5fff7002f00370026ffe6fff8ffe4fff6
0009fff1001400060018001b0004fffffff8
fffa000b002b001400260035004d0014ffdf
ffed0007fff3ffecffff00280004fffeffed
0008000c0005000c00080023001d000effe4
0001ffd8fffdfff8001400240028002a0000
ffe000000013ffff000c00090025fffdfff8
ffdd0006ffe6ffd4ffdc0000ffdc0001fff0
ffc7ffc4ffa9ffa2ffd9fffc001500040013
ffd8fff5ffff00000012fff70001001bfff2
ffe3ffe80008002b002400050016ffe6ffff
001effe6001d00080024002d000e000efff7
005c006b0049ffd8000c0008ffe00017fff5
0002fff9ffff0027fffdffe80020ffffffe4
ffd5fffeffeeffed000f0000000f00010000
ffedfff90016003d004a001f004500160012
0017fffcfff8000f0005fff9ffd1ffd4ffe8
ffdcffde000cfff60014ffed001d000ffff7
ffdfffe7fff8000efff6fffdfff900110005
ffd3ffe2ffef000300030002fffcfff50016
0008ffee0014001bfff5ffe5001f000b0004
ffe3000a000dffe7fff9fffe000efff4000d
0022fffcffe40058fffafffd000800320009
ffd1ffe2ffeeffe0fff2fffa0003fffc0001
00030009fff000050025ffffffec001b0015
fff5ffb9fff6fff4fffa0002001b001b001f
ffddffea0004000200040019000f0010001f
ffd4ffdf0008001c0002ffeefff10010001b
fff5ffd5ffda0020ffe5fff7001fffef0002
ffdfffda001b0006000e00030006fff60020
ffec0009fffdffeb0011fffaffef001c0001
fff10030000b0005001cfffe000c0012ffed
ffe50000001900520054ffdc00820020ffbf
000f0014000200080011fffaffec00070010
ffe9ffe1fff60000ffedfff20000fff9ffc8
ffd3fffd000f000dfff3fffe0000001f001b
000e00140002fff60015000affdcfffffff0
fff80017fffd0017002c0027fffb00000025
00010001fffafffbfff9ffffffee00060007
fff40000fff1ffff0011ffef0010000ffff0
ffe80001ffeffff3ffe20007ffb2ffdd000a
0011fff30020000c00000018ffe900120023
ffff00170016fff0fff30007fff7000affd7
0018001b001effee0003fff6ffe5fff30008
ffff001600100021001f0004fff5001b0024
00070015fff9fffe0012ffeefff7ffeaffe2
fff7fffdfff400190000fff4ffe6fff20004
0014000100030000fffd001efffa00080027
ffc0ffceffc7ffe3ffd8ffdd0001fffbffde
001e0023001b001700050010000900000015
00190023fff8ffebffe70014ffecfff5fff8
00130028000000170047000bffe30020002a
ffeefff2fffbfff6ffa5ff8effe9ffbeffad
001a000e0000000cfff9001effee000c0020
ffd80013002200000027000effcc00250034
00000000fffbffecffe9ffe4fff1ffd9ffd8
ffe4fff8000b00010007001efffdffdeffe7
ffea0009fffa000b0024fffe0015fff8ffe7
001c00100015001b001effee001efff5ffc8
0007000c001e003b002affed0013ffedffe3
fffcfff4ffe70001ffbdffccffceffacfffa
0010000600190001000ffff4ffbcffd2fffa
000c000a00010010fffeffcc0000ffc9fff5
fffe001e000c000b0023ffec0018fffcffdf
00190007fffb001efffdffe2ffd9ffedffda
0010fffc000e0010000cfff8003c0003ffe8
001800090000001cffffffdf00000000ffea
0011fff400060010fff9ffecffeeffddffd0
ffc1fff1000d00160014001b00320022ffe7
0025001f00160029001f0011001dffffffee
002c0012fff10008fff2ffd6fffdffdfffc0
ffdf00210019ffc90020fffcffd2ffe50035
ffbc000c0028ffe100190044003600310024
0012fffdffff001dffe50003ffcaffdeffe8
ffd4002500380018001dfff8001a000bfff7
000e001600010018ffe4ffd8ffb3ffcdffdc
ffd900110005ffbcfff50021ffcffffd0023
0043002dfff1000a001d000affef00120002
fff00000000affedffeffff2ffccfff00019
fff90016000fffe3fffb000cffe2fffafff9
fff7fff2fff3ffbbffea0011ffc0ffc9001c
001b002200190017001a0013001e001dfffa
ffeeffd30005ffd2ffdcfffcffd6ffb60001
0003fffc0004000cffe90015fff5000effee
00280020ffff001d001f0003001c001fffdd
fffbfffc000cffcdffed001affc4ffed0028
fff80037001cffc5fff5ffffffbe00060003
000f0036001affe400290004ffdd001d002c
fffc000700070006ffefffdfffbeffd9ffeb
00190016000effdf00020001ffe00014fff1
fff600240020fff60003fff3ffe9ffe60013
000c0010ffe1002e000bffed002e004fffed
fffeffbeffb4ffdfff8cff8bffceffa9ff9d
0013000a0012ffdf00010011fff500000011
ffee00330013ffef004d004efff600270033
ffeaffe5fffbffdefff2fff80008ffebffdd
0024fffa002c000500210010ffef0013ffe7
fffb0016fff40022000ffffbfff6ffebfff8
fffb0001001b00060004000effe400010006
0004001a0017ffe90001ffecfff400070000
0014fffd001dfff100230024ffef0008002c
ffff0000fffb001c0000fff5001a000ffff7
00240023002f000900290042ffe1fff80007
001d001afffcfffaffeaffe8fffc00090000
000f001efffaffebfff00012ffecfff0ffe1
000600140002fff00000ffe5ffdc0007001b
0002ffef0008001a0000fff4fff3fff8fff6
00240020001c0010001d0014000b00060006
fffc0007000900020016ffeeffd9ffe2001d
00150000fff3fff0000affe4fffafff50000
001d001afffd0017fff20018ffff00160001
00030009ffd40005fffbffa5fff6ffe9ffd6
000bfffd0009ffc3ffb2ffd3ffd0ffa9ffea
0006fff7ffeb0000000e000e0003ffedfffd
ffe6ffe5ffe3ffe80015ffd2fff70002fff1
00040019fffeffe10014ffee0003fff7ffeb
fffdfffdfffcffd9001c0012ffd60011000a
fff9000f000a00020012ffe8000effff0014
ffed00130022fffa0009001dfffffffd0010
000d0014000bfff8ffef000f0004fff3000a
fffd0009fff8ffe6fffb000ffff4ffe5001e
000b0022fff5002afff700080025001effe8
ffd7ffe30038ffe4fffc001c0004fff70024
00140013ffff00040016fff80012000ffffa
0021000dfff1fff70013fffe0005001a0004
ffed000d0011ffe9ffe6001dfffdfff8001b
fffb000f0027000900030013000100120014
00020021fffb000c00110018fff3001c0019
ffd3ffb5fff3fff1ffd50008ffd6fff1fff9
001a001a000afff20004fff20005001d0016
fff2fff4fff1001a0005001e000500040023
003b002200030014000ffff300150009ffcb
ffceffd00004ffbeffe0ffd6ffedffc4ffbe
000bfff9ffe6ffefffeffff00016fff4fff8
000300110010ffe70008000ffff60016fffa
000c0004fffd001b000efff1000cffdcfffa
002d0047fff0001a0044003effeb0015003b
0019ffddffcb004d0032ffd7fff80044001b
002b0019fffeffcefff9fffcffcdfff2ffec
fff2000c00120024ffdcffcbffeb001a0004
0000fffcffd8ffe8004f0031ffb80007002a
0012ffdb00180017fff10001fff9000efff7
fffa005a003cfff900300001ffea0039003b
002efff7fffeffd8fff9ffe0ffe3ffdb0015
0009ffdeffef0013fff4ffeeffdefff8fffe
0000002c0008ffe7fffbffd2000ffff2ffe0
0009fff8fff9fff00004fff2ffc8ffe90012
00200008fffc003d00610010ffe500240050
ffbcffd2fffc000fffe0fffe003d0038000a
001a0019fff4fffcfff3fffbfff8001d002d
001d0028ffefffff0005002bffd900030000
0022ffed000f0011ffcaffd5ffe6ffecffdb
ffa9ffca0006ff84ff60ffcaffc2ffe4fff8
fff7ffe1ffd8fffd00290004fffd0011002a
000f0036fff5ffd8ffd6ffe7ffa8ffa5ffe5
000600310041ffcfffc50029ffbbffcd0007
ffcefff00001ffe1ffeb0003ffd8fff70028
002500260011ffdbfff6000fffe0fff00005
0002fff5000bffe5fffd000fffef0014002d
001700050003fff10004000effdd000cfff1
fffd000bfff3fffdfff4ffe7ffeffffefff2
000a00150005ffdf00140011ffe80022000d
0020ffe1fffbffddffdcffebffe8fffbffd6
fffd0000000dffe60015002affec002b0017
00170011001bfff2fffafff4fffd001effed
ffeffffd0007ffd3ffe50017ffd8ffe70027
fffb00060017ffd6001b0027ffd7001a000c
ffe9000b0017ffd2ffe80015ffd100040007
0000ffdaffb3ffedffb5ffdeff9bffbdffc3
fff100260024ffe70001fffbffde0027001b
ffdcfff3001fffe0ffff0015fff0000c000d
00040018001a000e0007000c002700350010
001dfff6ffd0002800080009001d002effa9
ffe1001bffff0007fff60000001600290018
ffefffd5003affe100000040ffcc003b0047
fff20005001bffdd001d0009000a00280023
00160007fff3ffd300000011fff2ffe7fff9
fffc00160029000200000029ffc4ffe4ffe1
ffef001400310000000b0001ffecffc8ffdc
001e00190031fffd00060006ffd8ffd3ffb5
002100040011ffc5ffd5ffdffff0ffef002f
ffe8000e0022000d000bffebfff3fff5fff2
0015001c00300013ffffffe4ffc6ffe9ffe8
fff5000e001600050014fff1ffeeffcfffd7
001e00230010fffcfffcffe3ffcbfff70008
ffeffff80022001e00000014ffe7ffb0ffc2
000800180020fff40008fffcffdaffd9ffe8
00320020fff8ffd800060007ffc7ffe0ffde
002e0024000d005b004a002effebfff3ffc2
001bffff00250004fff6ffecffd6ffc5ffd3
ffe5fffefff9fffaffe4ffdaffccffef0007
fffb000b000bffdbffd4ffef0012002b0019
fffb0004002d003d00440073000f00490030
001200110000ffcefff2ffdbffff00100001
0027002c0000ffcfffd6ffe2ffccffbfffc3
000d001d0026ffcbfffb0002ffdaffd9fffc
ffdeffe8ffecffe2ffb6fff7ffedffcc0029
fffe002300240000fffa0006ffeffff60000
ffdd0006002affe3fff0001fffdf001c0026
001700070012ffe6ffea0020fffe00060006
ffdaffffffdfffda0003fffd00150027ffe2
ffe2fff80037ffe70011003700080013002d
fffafffaffeeffc400000011ffed000dffde
fff4fffc0033ffc5ffed001affea00240025
ffe40016002dffd30018001bfff7001d001b
0007000cffe1ffdbffdc0009ffccffec000d
ffffffe90026ffe6ffeb0006ffd9fffc0017
ffc5fff5000dfff8ffcafffdffe6fff70021
00320011ffd0ffb3ffcbffbbffd6ff9effe0
fffa00200031ffdb00160003fff00003001a
ffddfffd0011ffe100260021fffc0009000d
ffe8002b001efff500030046000f00260030
002d001fffb5003c0000ffd200590009ffde
ffe400080020fffe0008001e000800070006
ffcbffa50004ffabffea0023ff8afff00044
fffdffea0003ffd000280026fff400200020
fffdfff3fff4ffccffe2ffe0ffd7ffd5ffea
fff7002f001afff2fff10001ffc5ffdf000f
0014fffa0000ffcd0005fff9ffe6ffdf001b
002400080021ffe6fffc0009ffdd000e000f
ffd6ffe30005ffe4000ffffaffd2000a000e
001a000e0014fff3ffff0003ffdaffeb002f
0011002b0014ffe80005fffa00090020000e
0021000cfff8ffd3fff5000affd7ffe00005
fffafff40010ffe7fff20015ffd300190036
fffe001c001afffa0007ffe4ffbd000b000b
00050008fffcffe7fff20015fff3ffda0022
000affea000cffd2fff80018ffd9ffef0002
0040003d0022fff70007ffe1ffb8fff8fff9
001f00190009ffd9ffe5fffeffe3ffd90013
fff1fff7ffeeffda00070020fff4fff80004
fffb0000ffedffde000f0014ffff00370040
0006003e004d00010046ffe20011ffebffba
ffedfffc0010ffeafffb0021ffefffebfffb
fff1ffc4ffcaffb5ff9bfff4ffddffb60016
ffde000c000fffe900040026fff4ffea001f
001b000600250000ffeb0000fffefff9fff8
00190019ffe1fffc0013fffaffee000c000c
0012000b00080017fff50007fff6000a0007
00030004fffe000c000e0011fff9fff4fff9
0011001b0019000c000b000a0000fff9000c
0004fffcffe100160019fff60000fff20012
ffe6fff50022ffebffed0007fff200050015
fff000170001001100160002fff600110015
0003000effd9000bfffcffe9ffe5000cfffc
ffe6fff5fff2000bfffa00020019000f0000
0000fff2002100000014001bfffe00070010
0005000a001bfff60010000c0003fff7000b
ffedffdcfff600120001ffee001900230002
fff7fff000110007001a000d0008fff90018
0009fff300160000fffafffb0010fff1fff0
ffe4fff60002fff7001effeaffed0000ffc4
fffaffedffebffeaffd8ffd3fff1ffb9ffbe
000a000d00010015000dffef000f0008000b
0002ffdd001d0017ffe7ffe5ffdbffd4ffe2
ffe9fff0fffbfff7fff1ffde000cfffffff7
002600140000ffdaffeefffbfffa0000ffe7
ffeaffd6ffda0000002300230005fffb000a
ffe8fffd00150012000c00050007ffebffea
ffe4ffd9000000110021002900120014ffe5
00260036001800100032fff6fffaffd3ffe6
fffcffe70012fff6fffc0001ffecfff8fff2
fff6001a000f0059003a0024ffc9ffd9ffd7
fff4ffdf000000210004001e000c00090006
ffe80009001a002100010029ffdeffea0000
ffe5ffeaffec000e000b0033001d0022fffd
ffdcffebfff7000500020016fffcffe2ffed
001b0002ffe8fffc000bfff0fff9ffdcffd4
fff0fffdfff1003100420028005300500009
fffb00060002000a000e001bfffdffec000e
0004fffffffb00020005000affdeffdd0011
ffd6fff0001affe4ffcbfff8ffe1ffedfff9
ffdcfff20005fff800210013001f00560043
00140011002c0008ffea000effe8ffeaffea
ffeffff5ffec00150009fff0ffc3ffb4ffd2
0014fff40007fff10017002effc3ffb9ffdc
