000a002f0024ffedffcb0049003effc5ff99ffc600390011ffbbffb3ffa70033002d0020002a0000001a0027004600360041
002a003f0024fff9001800120047004b0021fff1ffe1002e00330052ffecffb8ffd5002200150017ff96ffb2ffd90027002d
00000014fffc00260004fffc0014003e0005002300140045000afffcffec00330010ffecffd4ffeb00030026fff0ffecffbd
fff200000015000b0030002600300027001a00120029002c002b003500180006ffeaffd9ffe4ffe7fff6ffd7ffbefff8fff3
fffaffc5ffdcffccffdb0015ffbcff9cffe1001a003d002cfff300210023002a004e0057002400040009003b0021003b001d
fff0ffed00290034001affbeffd9002700330006ffc7ffda002a003e0004ffbb000b0024000e001dffdb000d001a0011ffdb
0007ffccffabffd3000afff3ffe0fff80035003800160030006300560041001c0022000bffdffff0ffe9ffe1ffc4ffa7ffe3
ffeb0015002300240030000d0014003d002a00010030001f0022fffd000a001100020021ffe3ffbffffdfff3001cffd8ffc8
ffbf000c0009001e0033ffddfff3002200350016001b0000001f0036001e000f000f001800220024ffe7ffdefff200230008
001f00100007002d0038003c00260047003a00570035001fffeffff700030027ffecffc7ffa2ffb7001effe3ffd6ffdafffc
fff3001c0019ffef001500180020fff6ffeb0014002b004600340013000b0005002e0007ffe1fff9ffe6001c002dffe0ffbb
0009001f000fffd2fff00035004bfffbffa8ffb3002600530009ffe9ffbfffe4001f004f003d0013ffb90000003c00230012
0046005000480029004c0037001e003f00280044ffdcfffe000600230025ff97ffb6ffc5ffbeffd3ffdfffafffb6ffb6ffe6
0018001b0025001e002400280039fff9000afff2fff6002f0031001100130010000f0037fff7ffe8fff8ffe9002a0013fff6
0008fff2ffec00170023ffedfffefff500350012fffe001c00280000fff3000300060039ffefffb900180021001dfff5ffc1
ffd8ffc6ffc3fffa0038ffceffaeffe50028003cffd0ffb3fffd002c0020ffa7ffcd002700170041ffc8ffff001100170030
00400046004e00340008002a004b0027ffe7ffd9003b0000ff91ff7fffc2ffb5ff64ff4affbf0020ff6eff71001500410046
fff0fffaffea0018fffefff9002c000f0025ffe5ffe6001d0016fff00016000f0029000f001f002300000010002b00210039
00350041000effe7ffbb005a005bfffaffa7ffac005f003d0000ffbbffd30052002bfff3ffc8fff300290018ffdaffa3ffd3
ff97ffadffea00270046ff8afffe004400460019000000550055000affef001c00340015ffe8ffe7002d002fffe2fff0ffb9
