ffc9
0006
0005
fff9
ffdf
ffdc
ffd5
fff0
0018
0008
000c
0005
fff9
001b
000e
001c
000d
ffec
000b
0000
000f
0001
ffc8
0012
001e
ffe4
ffbb
0013
002c
002c
0002
0006
0002
ffed
ffed
ffef
0006
fff6
ffba
0008
001d
0011
000c
0000
ffc7
000c
0014
000c
0003
000a
fff6
0002
fffd
0000
ffff
000c
0018
ffef
ffcf
fff7
0026
fff8
ffde
fff2
ffec
0016
fff3
fff1
000b
0027
fffd
0014
ffff
ffd4
fff7
fffd
fff5
001a
001d
000a
ffd0
ffe3
ffed
0005
0014
001c
000c
0027
fff8
fffb
fffe
fff4
0000
0009
000b
ffb4
0005
ffdb
fff7
fffa
ffe5
001d
fff3
ffd7
0011
ffff
0023
ffe3
fff2
001e
0000
000a
0005
fff8
ffe1
0008
fffc
0017
fff1
fff0
ffe8
0020
0007
001e
0004
ffd4
ffe9
ffe2
ffc8
fff9
0009
0004
fffc
fff0
0008
0000
000c
ffd6
000b
fff5
fff3
ffe9
fff6
fff6
0012
0025
ffd4
fff3
001d
ffde
ffff
0000
fffb
ffe5
0023
0006
000b
0019
ffbb
0003
0018
fff3
fffd
001b
fffb
fff6
0005
fff8
ffe5
ffd7
0000
fff7
fffd
002b
ffef
0002
0000
0018
0007
0003
0002
ffc0
0003
fffa
0014
ffe4
0032
fffc
0001
0019
0008
fff6
fffb
fff0
001a
0005
0001
fffa
fffd
ffef
