0001
0002
ffe8
0009
000f
0008
0002
0011
0016
001f
0009
0015
0002
ffe3
ffe1
fff2
000b
fffe
0020
0001
fff4
fffe
fffc
fffd
0023
0002
ffea
000c
0003
0015
000c
fff3
fff1
ffff
0007
0005
fff1
0011
0020
0017
fffc
0001
0008
ffff
0022
002f
001e
001f
000c
0010
000a
fffd
0006
fff0
0003
0011
000e
fff7
ffbc
ffc7
fff6
0011
fff5
0014
0007
ffe8
ffdf
0002
fff1
ffe3
0019
ffe6
ffe2
ffed
001f
0015
0003
fff8
ffd6
fff1
0001
0010
ffe8
ffff
fff1
fff2
fffb
0017
0003
000c
ffef
0015
fffa
ffff
ffef
fff1
0002
0006
0016
fff2
000d
fffc
001d
0017
ffef
fff4
ffed
0022
fffa
0005
fffd
ffef
000a
fff4
ffeb
0015
0006
0012
ffd5
0001
fff0
000c
001e
fffc
ffee
fffc
fffa
fff2
000f
001f
fff8
fffa
0001
ffe9
0000
fffe
0003
0003
000d
0009
fffe
000c
0000
0001
0010
fffa
fff7
0017
000b
fffe
0006
fff2
0010
fff0
ffff
000c
fff9
fffd
fff2
fffc
fff9
0004
fff7
ffee
fffe
000a
fffa
ffe4
fffa
ffe9
fffa
001c
fffd
ffed
0004
0007
fff4
ffee
0015
fff2
000c
fffb
fff5
0004
0006
0012
ffff
0008
fff4
0002
0018
0008
001a
000a
0004
fff5
fffe
0009
fff9
000f
000b
001c
fff9
ffed
0003
001a
0010
fff1
ffc8
ffe8
000f
002a
000f
ffe5
fff9
ffdd
000b
000a
000a
0011
0016
001b
0009
000d
000d
0012
0011
fff8
0022
ffea
000d
ffdf
fffb
ffea
ffc2
ffe2
0002
fff3
ffef
001c
0032
ffbb
ffe6
fff6
ffea
0004
ffeb
0007
001b
0007
ffdb
fffd
ffe6
0009
ffcf
fff7
ffad
ffde
ffe2
fffe
002a
0003
fffd
fff3
ffd3
ffe9
fffb
002a
fff5
0006
001b
002c
0037
fff8
fff7
fff4
0019
0007
fff6
000c
ffcc
0006
0005
fff9
ffec
0000
ffe5
ffef
ffff
0004
fff4
0005
fffd
ffe3
000d
0029
0009
0017
fff9
ffe3
ffdd
fff6
0011
0015
0015
001d
0012
0016
0000
0004
000d
0037
fffa
ffe3
ffcf
ffee
ffef
0013
0010
0002
fff1
0003
fff7
fff2
0008
001e
0004
0017
0017
0006
0001
fff9
fffb
000c
0004
ffe3
ffd7
fffb
0004
0010
001e
fff2
fff3
000b
0007
fff8
ffd5
fff7
ffde
ffef
fffc
fffe
fff8
ffbf
ffdf
ffef
ffe5
0008
0002
ffc2
ffea
001e
fff5
0011
fff5
000d
fff8
0004
fff2
ffd8
000e
ffef
fffe
ffe7
0015
fff8
ffd8
0006
0017
0009
ffea
fff5
ffe7
000a
0002
fff0
000c
0003
0001
0012
0031
0012
0002
fffb
ffee
fff4
fff9
000e
0007
ffd0
ffea
ffb3
ffee
001d
000a
fffe
ffcc
0017
ff9c
ffde
0017
fffd
0003
fffb
004f
ffe2
ffee
0005
fff6
fffb
ffea
ffed
ffdc
fff5
0031
0009
0011
ffe6
fffd
0009
000f
0022
fffb
0001
fffa
ffe3
ffd6
ffd0
fffa
0014
fff1
0006
fff0
0003
fff5
fff9
ffff
fffe
fff2
ffca
ffbf
000e
fffe
000e
ffeb
0011
ffeb
ffda
000b
ffe2
ffeb
fffb
fff4
fff0
000a
000c
0008
0000
ffe9
ffea
0008
001e
0016
0036
001d
ffea
fff5
ffe3
0007
fff9
000b
0030
fffb
0004
000d
0000
fffa
001f
0023
fffa
000b
ffeb
fffa
000a
000a
fffc
0009
0010
fffc
fff0
000a
fffb
000a
0015
fffa
ffff
fffa
fff1
0008
000e
0004
0000
0007
fff3
0011
0024
fff0
ffeb
0010
0003
fffb
0023
ffed
ffef
fff1
0000
0017
fff7
0004
fff8
ffff
ffed
ffe9
fffe
fff7
fff0
000b
000b
fff3
000e
001b
0005
ffe9
ffe3
fff4
000d
0000
000f
0006
0003
000a
fff4
fff6
fff3
0007
000b
ffe0
0010
0002
000f
0000
0017
fff6
fff6
fffd
ffe3
0003
fffe
0002
fffd
0017
ffe6
000e
0011
0010
0007
0010
0007
fffb
0000
0011
0008
0025
fffe
ffeb
0014
002b
fffa
0004
000d
fff7
fffd
000f
fffd
fffe
fff5
fffa
0018
0000
0012
ffec
fff3
000c
0003
ffe8
fff7
0007
fff5
0015
ffe2
fff9
fff9
0005
002a
0002
fffb
ffe3
0010
ffef
fffc
fffe
fffc
000c
000f
ffea
0009
0000
fffc
0003
0005
ffdf
fffd
0004
0007
fff8
fff3
0012
0003
fff8
fffe
fff9
fffc
ffff
000a
0004
0012
fffd
000c
fff5
ffda
fff5
0000
0000
0001
fffe
0014
fffd
ffec
0012
0010
000b
001a
0026
0007
0005
fff2
fff7
0003
0012
000a
0002
0005
0004
0003
fffe
fff8
0008
ffff
000c
fffc
ffdb
000a
0009
0006
0020
fffe
0000
001c
000e
ffff
000e
fffe
0000
fffa
000b
fff8
fff7
ffe7
ffd8
fff1
000b
000f
ffd5
fffe
0000
fff8
fff4
fff0
ffe0
ffd3
0019
0001
ffef
fffc
0004
fffb
0011
0013
fffd
ffef
fffe
fffa
0001
0000
fff0
000b
0010
0005
000a
0007
0017
001e
0005
fff9
0010
0010
001c
000d
001b
000e
fff3
0014
0008
0016
000d
0004
0007
fffe
ffdd
0014
0015
fffb
ffff
000d
0003
0000
fff4
fff2
ffe0
0017
0000
fff0
000c
fff7
fffa
fff7
fffa
ffe7
ffe1
001c
0014
001e
0006
fff5
0007
000f
0003
fff8
0001
fff8
0008
0013
0017
0011
fff9
fff4
0024
0011
0003
0007
fffb
ffe5
fff2
001d
0010
0006
fff7
0002
0005
ffeb
0004
0001
fffd
fff6
000c
fff0
ffe3
0004
000e
0007
000a
000f
fff9
0000
0005
0019
0017
fffd
fffa
fff2
fff7
fffe
fffe
0004
0009
0000
001c
001c
fffc
0011
001a
0019
0013
000a
0008
fff2
0001
ffed
fff7
fff1
0005
0019
0016
fff9
fff6
fff7
ffed
fffc
fff8
0006
0014
001b
0000
ffe8
fff0
fff3
000b
0026
fff6
001b
0018
0000
0010
000f
0000
0018
fff1
0016
ffec
0003
0000
ffef
0006
ffed
fff5
ffdc
001d
0008
001c
fffa
fff1
001b
0005
ffe4
fff6
ffe9
0027
0001
fff7
fffe
0008
ffed
fffa
ffdd
fffd
fffd
000f
fff9
fffd
fff7
fff8
000c
fff0
000b
000a
fff2
ffde
0003
0001
fff7
0005
fffd
fff4
fffa
ffee
fffe
000d
0010
001e
002e
0012
fff0
0007
0009
0009
0009
0011
0011
0000
0007
0014
0005
001b
ffde
001b
ffff
0004
0015
0002
ffe9
ffc2
ffd5
000a
0001
0010
0000
000c
ffd9
ffd3
0023
ffea
fffe
0010
0001
ffd8
ffbf
ffef
ffef
000e
0008
ffef
fff9
fffc
fff0
0004
0010
fff5
ffcb
ffa5
ffcb
0004
ffff
000a
0020
ffb0
ffa6
ffef
ffe4
0035
fff3
ffec
ffee
001a
000b
fff4
fff0
ffe3
000b
0006
0015
0003
ffe9
0001
fff5
0003
0004
0002
fffe
ffe8
0001
fff1
ffd8
ffe4
fff9
fffe
0005
ffea
000b
0007
0006
fff8
0006
ffe7
fffa
fff6
000a
0006
0000
000f
0004
0000
ffe9
ffe8
0001
ffe6
000b
0003
0011
0000
fffe
ffea
000e
0011
0013
001d
fffe
fff6
0009
001d
0025
0028
ffdf
ffe4
002d
0017
0013
000c
0018
ffdd
ffe6
0018
002c
0049
0002
000f
fffa
0001
fff7
0013
ffe9
0000
0022
0011
000b
ffd3
ffea
0034
001a
0012
0000
ffe9
ffef
0014
0005
0017
fff8
0016
0006
000f
fff9
fffc
0012
0000
ffff
fff4
fff1
ffee
fff2
000b
0010
ffe7
0000
ffe4
ffff
fff1
fff0
0015
fff1
0004
0010
fff5
fff7
0004
0001
ffe6
0003
0010
0007
ffe4
0001
002f
0000
000c
0000
fffa
0005
0012
0012
0002
0006
fff5
001d
000b
fff4
000f
002b
fffe
fff9
002b
0041
0024
000d
0015
ffe5
000e
ffec
0016
0009
000d
ffe9
fff0
fffe
001a
0011
0001
fff9
ffe0
fff3
0017
fff0
0004
0004
ffeb
ffe5
0001
000d
001e
ffd1
ffff
ffea
fffe
fff0
fff7
0007
0007
0016
0024
fff9
fffc
ffcb
000d
0008
fffe
0014
0016
fff7
fff1
0011
0025
fff5
001b
ffda
fffa
0008
ffe6
ffe5
fffb
001c
000e
0004
0014
0000
fff4
ffea
fff8
fffb
fffd
0012
0000
ffe1
fffe
fff4
ffff
fff1
0014
ffef
ffe4
0024
0010
fffa
0030
fffd
0006
fff9
0009
0002
000d
fffa
fffb
0010
0003
0000
0005
0023
0009
0008
fffd
ffee
0016
0006
000a
0007
ffdd
fff7
fff6
001c
0007
ffe3
fffc
003e
0029
000e
0002
0002
ffdf
ffe4
0017
0020
000e
0001
002d
000f
ffee
fff1
fffa
ffe9
0015
002d
0011
000b
ffea
fffb
0003
ffe9
ffea
0016
001a
fff0
0017
0000
000c
0018
0004
fffd
fff7
fffe
0010
0028
0024
fffb
000b
ffe7
fff5
0010
fff5
000d
0006
ffff
000a
0006
fff8
001a
fff5
fff7
0002
0014
0001
000f
ffec
0000
fff0
ffff
001a
000c
0000
0015
0008
0023
fff6
ffe4
fffb
0002
ffe7
0006
0028
0019
0014
001f
0025
ffe5
000d
002a
ffed
ffff
000f
0014
0002
000d
fff6
0006
0017
000e
0000
fffe
ffd3
fff7
fff4
0000
fff2
fff6
ffea
001b
0002
fff3
fffd
0006
ffeb
000b
0019
0009
001a
fff8
0003
001c
ffeb
001b
fff0
fff0
0018
fffa
fff9
fff5
0002
fffd
000d
fffc
0003
fffb
fff7
0012
ffed
0004
fff0
fff7
000c
fff4
0014
0007
000c
ffe4
0003
0022
0011
000a
ffda
ffe9
0019
0027
002e
0010
0029
ffe9
ffe5
fff5
ffeb
0028
0019
ffee
fff8
0007
ffef
ffd9
fff1
0001
fffc
ffda
0014
0005
ffe8
0017
000e
fff0
fffe
0038
fffb
000c
0020
0014
fffc
0029
0012
fffd
0012
0000
0003
fffc
fff8
0011
0014
0032
0004
0011
ffe2
ffef
fff6
0002
0011
001a
ffe6
0011
fffa
0003
0008
fffe
ffec
0013
0015
ffff
000c
fffc
fff6
0019
0012
ffff
ffe7
ffe9
000b
fffc
0008
0013
0003
fff0
fff6
ffdd
0008
ffe3
0000
fffe
fff5
fff0
ffe2
0017
0019
0019
000c
0011
0008
fff5
ffff
0016
001f
fff4
ffeb
0003
fffb
000e
fff7
ffe6
fffe
fff0
0007
fffc
fffb
0007
0014
000b
ffec
fff6
fffe
fff8
0019
fff7
fff7
000d
0014
0012
ffec
fff9
0005
0028
000c
0013
ffe0
0023
002c
0018
0042
002f
0004
0004
fffe
0009
000f
0008
ffef
0016
0001
ffff
fffd
fff4
0004
fff3
ffec
0010
fff5
ffcf
ffda
fff8
fffa
000a
0003
0006
ffef
fff3
fff0
fffa
000f
0010
ffe5
ffea
0000
ffd8
ffe8
000f
0018
ffe4
000c
0008
000a
0005
0000
0009
001b
fff5
0002
000d
0000
fffd
fff4
fffe
001d
0013
0014
000c
0013
ffef
001b
fffe
0004
001f
ffe3
fff9
0017
fff6
fff0
0003
fff1
ffe1
ffe3
fff5
fffd
0000
0035
000a
0004
0009
0002
ffff
0005
fff3
fff3
fffd
0028
ffe4
fffc
0007
001d
fff7
0006
0017
ffde
0003
001a
0012
002b
0008
ffea
fffc
0000
000c
0003
002a
0000
fffe
0004
001e
fff9
0000
ffe6
ffd1
0005
0000
000b
fff9
fffb
0005
000f
ffe4
fff3
fff8
ffef
0013
0026
000e
001f
fffb
0005
0014
0030
fffa
fffb
0000
0000
0011
0003
0000
0015
001b
0003
fff8
fff6
fff7
000c
000b
000b
fff6
ffe5
0007
ffdb
0001
fff8
ffe4
fff0
000b
0043
001d
fff8
ffbf
fffd
fffd
0024
0027
0004
ffe0
fff9
ffcd
ffd8
0028
0028
fff6
000a
0012
0008
fffe
ffcd
ffe2
0013
0018
ffea
ffeb
000a
ffec
000e
fff5
fff9
0006
0011
0007
fff7
0005
0020
fffd
0013
fffb
fff6
000c
fff9
0001
0002
0016
ffe7
fff3
0003
0002
fffe
ffde
fff5
000b
fff0
ffd7
ffea
ffda
fffd
000d
0002
0005
0014
ffed
fff8
0016
0000
ffe4
0013
ffeb
ffe9
000a
0017
ffea
ffca
0008
0008
0020
000a
fffb
ffff
0000
0002
fff5
0018
0000
000f
0003
0000
fff8
fff6
000c
0019
fffd
0002
fffe
fffc
fff2
ffea
000c
0023
fff3
ffbf
fff2
0001
000c
0002
000a
fff8
0021
ffde
ffe2
fff0
0001
002d
0011
0000
001d
0000
fffe
fff4
0027
fff5
ffe8
fff9
fff7
0012
000a
0020
0010
000d
0000
fff1
ffd9
0004
001b
001d
ffdc
0013
0004
0009
fffd
000b
0010
000e
001f
0007
0001
000c
0020
0000
0006
fff2
0004
fff1
ffe7
0007
000f
ffee
ffed
ffd7
ffe8
fff7
001b
ffdf
ffe1
0005
fffc
0004
fff7
fff5
ffe8
fff9
0022
fffe
0008
0028
ffe9
0013
000a
000b
ffe5
fffd
002c
0020
001a
0012
000f
0000
0003
0001
0003
0006
ffdf
fff9
0000
ffe7
fffc
fff3
000b
fff6
000e
ffde
ffde
0003
0000
fff0
fffd
0003
ffee
0000
0011
fff0
000c
0015
fffd
0000
0004
fffe
001b
0019
0003
fff3
0001
0007
001c
0003
fffd
002a
0000
0001
000c
0005
ffea
fff0
0011
fff6
fff9
0000
fffe
ffda
ffbb
ffd8
fff4
ffec
004b
001c
0003
fffe
0009
fff4
0011
0039
002c
fff9
0015
0014
ffff
0027
0024
fffd
fff0
0034
0004
fffc
ffe9
0001
0018
0009
fff0
fff8
fffb
000e
0020
fff9
fff9
0011
ffff
fffc
ffe4
0000
0007
fffb
0000
fff1
0001
fffe
000a
000e
ffd0
fffd
fff5
000a
0012
ffc6
ffd1
fff8
0005
0001
0007
000f
0011
ffe2
fffb
ffeb
fff3
0002
ffe8
fff9
ffd9
fffd
fff2
ffef
fff4
0006
fff4
0008
000a
0000
0000
fff4
000b
000c
fff6
0001
0012
001b
0000
0000
0000
0005
0026
0008
0013
0029
ffff
fff7
ffef
0000
0000
000c
fff9
fffb
fff5
0011
ffef
fffb
fff1
0004
000e
ffe8
fff4
0011
000c
0003
ffee
0012
0001
fff8
000f
000c
001d
fff9
000e
0003
fff6
0024
0004
0004
0011
fff3
0003
ffee
0017
fff8
fff4
0000
0005
0000
0003
fff7
0015
0025
0005
0004
fff4
0004
000b
0018
fffa
fff8
0006
0007
000b
0009
fff7
000a
ffec
0013
fff3
ffe2
0000
0000
0003
ffef
0001
fff8
ffea
000f
0001
ffef
ffef
0001
000e
fff7
0016
ffe5
001b
000b
000a
0006
fff1
0000
0009
fff7
0003
0016
ffed
0004
0001
fff9
001f
fff8
fff9
ffe4
001a
0041
0017
0009
0014
ffef
ffe4
0016
0016
0013
0012
0000
000d
0014
fff4
0011
000d
fffd
fff3
000e
fffc
0005
fff5
0028
0004
fff7
fff8
fffc
fffb
000b
001b
fffe
ffff
ffe0
ffed
0006
001b
0021
001d
000c
ffd5
001f
0006
fff7
0004
0024
fffc
fff2
fff4
0008
ffde
0018
0004
ffe1
001b
0006
ffd0
ffe2
ffde
ffcc
ffe7
fffa
0007
ffdf
fffd
0016
0018
0036
fff4
ffe1
fff3
001f
ffda
fff0
002e
fff6
0002
000f
0009
ffda
ffd2
fffe
000a
000a
ffec
fff4
ffd5
0010
ffe6
ffe6
0009
fffa
fff2
000e
ffec
0011
0001
0002
ffff
000e
ffe3
ffe0
0006
0014
004d
003b
000a
ffe2
ffe5
ffff
fff2
0022
000f
0011
fff9
ffd7
ffe1
0027
0038
0025
0025
001c
000c
000b
ffe7
fffd
0004
0030
ffe5
ffe3
0010
0004
0016
000d
0009
000e
0001
000f
ffd9
0002
fff1
fffb
0006
fff5
000e
000d
0002
0007
fffe
ffdc
0005
ffee
ffe7
000c
fff9
ffe4
ffd9
ffae
fff7
ffec
0002
ffdf
0011
0044
000f
003c
0009
ffef
0003
001c
ffe4
ffef
003e
ffda
fff9
0002
0005
ffe6
ffd5
fffd
fffb
fff3
0007
0008
ffed
0029
001e
fffc
0002
fff9
ffd6
002e
fff0
fffd
0001
0006
fff8
ffe1
fff3
fff7
0010
ffee
0006
001b
fff2
001b
ffe1
000d
fff8
001e
000e
0026
0029
ffdc
ffca
ffe9
0002
fff4
0003
ffd5
ffca
fffc
ffe6
0001
fff1
0011
0011
ffea
0021
001b
000a
ffef
ffff
fffd
0003
0020
ffe8
0002
fff6
000a
000a
0004
fff9
000f
fffe
0008
0023
0002
0005
fff8
0014
ffff
0011
000a
0007
fffe
ffef
0002
ffdf
ffd4
000a
fff4
ffee
fff1
fff8
0002
ffef
0001
0002
ffee
fffa
0003
000c
fff2
001a
0013
fffd
000c
fffa
0016
0007
0009
fffd
000a
000d
0000
0015
ffed
0002
000a
0008
000d
fff4
0019
001b
001d
fff6
ffd2
ffec
0017
000b
001d
0013
000d
ffe0
ffd9
ffeb
001e
0006
001b
fff8
ffe7
ffe0
fff7
ffde
0013
0003
000e
fff4
fffd
ffe4
fff0
fff6
fffe
ffef
fffe
0000
000b
ffe5
000f
fffa
000a
0000
0000
fff4
fff0
0003
0000
0013
0010
0015
0013
000d
fffb
000c
fffb
0011
0009
fff2
ffff
fff5
0010
fffa
fffe
0018
ffe9
fff0
ffdf
ffe8
fff1
0004
0014
0002
001a
0023
ffec
ffe4
000f
0007
0014
0002
0010
0016
fff6
0011
0015
fff2
0008
000b
0035
0004
003e
fff0
ffd5
ffe8
fffa
0048
fff5
0015
ffdd
fffd
0017
0038
0027
0007
0025
001e
fffa
002f
001e
0018
fffc
fff1
0000
0005
0005
fff4
0014
fff4
fff2
ffff
0000
fffb
0003
0007
ffee
fff3
0002
ffe7
001f
000c
001c
fff9
fff5
0002
0040
001c
fffc
000f
ffee
ffe7
0014
001f
ffe7
ffef
ffe6
ffe6
000b
0000
0017
0017
0006
0010
0001
0005
000b
fff8
0004
fff0
0008
0000
0007
0016
ffdc
ffed
fffb
fff0
ffea
fffd
001b
fff3
ffe4
fffe
ffed
0000
ffeb
0024
000d
0013
0021
0015
fff8
000f
001a
fff0
0011
0034
0013
001a
fff3
0005
ffe5
fff3
0007
0019
ffde
ffe9
ffe6
001a
001d
001a
0016
0023
000b
0015
000a
0000
0000
0016
0006
fffb
fffe
fff9
ffea
ffef
0006
0000
0007
0000
ffd4
ffee
fffc
0015
ffee
0019
000d
001b
fff6
fff9
000a
0000
000d
0002
fff7
fffc
0017
0000
001a
001d
fffc
fff1
0000
ffef
fffc
000d
ffef
ffe2
fffb
fffe
ffcf
ffd4
ffdf
000a
0019
fff5
fff0
0003
fff1
fff7
fffe
fffe
fff9
0012
0002
fffa
0033
002f
0011
0013
0032
004a
0004
ffde
0002
fff2
000d
fff0
0005
000d
0000
ffd8
ffe1
ffe1
ffd2
fffe
0032
001a
0025
0008
ffe6
fffb
001b
fffc
ffe6
0009
ffff
000e
0009
0014
001a
0040
001c
001f
000b
fff5
0048
0084
0065
005a
0021
0013
0012
0033
002c
0019
0021
000a
0017
0029
0052
0022
fff6
ffdc
000e
0010
003a
002f
0020
ffe5
fff6
0001
0023
0005
ffee
0030
0005
0011
0011
0030
fff2
ffe3
0014
0013
000a
0010
0011
0047
000f
0028
001a
0032
0015
000b
0012
0005
fffd
fff2
fff1
001f
0007
0004
0013
ffeb
0013
0016
0032
ffef
ffee
ffe5
ffe6
0016
0015
0005
0009
000b
ffee
ffe7
0004
0008
002c
0014
001e
0003
001c
0010
0002
fff8
fffb
0001
0007
0002
0003
fff2
000b
fffe
0019
0005
0017
003b
fffb
0018
0013
fffd
fff3
0022
002b
0019
000f
ffff
fff0
0008
0014
fff3
ffd9
0022
ffe4
0002
ffff
000b
0009
fffa
003f
0021
000c
fffe
0017
fff1
0002
fff8
0004
fffe
ffdb
0000
fff5
000b
003b
ffee
ffe3
fff5
0006
0003
0013
000a
000c
0021
002c
ffee
0010
001f
0015
fff0
0036
0029
ffed
fffc
fffd
fff8
ffff
0037
0043
0025
fff0
fff8
ffff
0013
0033
0025
003c
000e
0004
fffd
0033
0009
ffd3
0003
0019
001d
0006
0014
fff4
fff8
ffe8
000b
0000
ffd3
fff8
ffe5
ffd7
ffb9
ffd7
fff3
0000
fffd
0008
0002
ffdc
0000
fff0
fffc
ffd6
0015
0039
fffb
ffd5
ffe7
ffee
fff6
ffe6
ffe5
0004
0005
0007
0010
0001
0007
fffa
0037
000d
001e
0014
0018
ffee
fffa
0019
0005
fff1
fff4
0034
000c
fff9
0010
000d
fff8
fff7
fff6
002f
ffeb
ffdb
ffea
0003
0004
fff7
000c
000a
0012
0007
0003
fffe
0001
fffc
0016
0016
fff3
000d
0001
000d
fff2
0012
fff0
0003
0002
0002
0029
fff7
0000
fffb
ffe4
ffe6
fffd
0008
ffff
0010
000e
fff7
fff6
0014
ffff
0017
0030
0027
0004
000a
ffee
ffee
ffd8
fff4
0013
0003
ffee
ffff
000b
0021
001e
0010
001e
001b
0016
000f
fff6
fffe
000c
0016
001f
0012
fffb
fff9
0002
000e
000a
0000
0016
ffdc
fff9
fffd
fff8
ffdd
0014
000a
ffff
0005
000e
0019
ffff
0008
0025
000f
fff9
001d
0018
fffa
000e
0003
0005
fffe
fffc
fffe
0003
000c
ffec
000f
0018
fff6
0010
000b
0023
fff2
fffb
0001
ffee
0004
0004
ffee
fffc
ffeb
fffe
0005
fff2
fff6
0012
fff3
fff6
0007
0009
0006
000f
0005
ffff
0012
001b
fff4
0015
0005
0002
0015
fff0
ffee
000c
0000
fffc
fffb
0005
ffea
fff8
ffef
ffe4
fff5
fffe
ffee
ffff
0027
0026
0015
fffe
0013
0010
fff6
000b
fff1
0010
fff4
000e
001d
ffff
ffde
fff9
0004
ffe7
000d
0017
ffe1
fffe
000c
001b
ffe8
fff6
0008
ffff
fff0
0030
fff4
0003
0005
ffff
0011
fffa
0009
0010
000d
0000
0018
ffed
0004
fff2
fffc
000c
ffe3
0005
001c
001d
ffef
0001
0008
000d
001a
0010
0010
fff6
0005
fff1
fff1
000f
000e
fffb
000b
0014
000b
000f
0034
ffeb
fff9
fff3
000d
fff2
ffe9
0022
fff5
0011
000c
0001
0016
fffe
0006
fffe
0008
0000
0004
000d
0005
0002
ffe9
fffc
fffa
ffcd
0013
0000
001c
ffff
001f
001f
0017
0013
000e
000e
fffc
001c
000d
0001
000d
0019
0003
0002
fff5
0012
0000
0001
0005
000f
000b
0006
0022
0008
ffee
0018
000c
ffef
0013
fff4
0003
fffb
0004
0023
0005
0011
000d
0000
0017
0019
0013
ffe0
fff9
fff0
fffb
fffd
fff5
0007
0020
ffff
fffd
0004
0022
0015
0005
ffff
fff2
0017
ffee
0006
0000
000c
fffe
ffeb
ffeb
ffd6
fff4
0002
001c
fff9
0004
ffff
0009
fffa
000a
0028
0018
0004
0006
001b
0014
0007
ffff
0010
fffd
001c
000a
0012
0026
0008
fffb
fff2
001c
0003
0010
fff2
0004
0009
0002
fffe
0002
ffff
001c
0000
0011
0003
000d
000b
fff4
0011
0006
fff0
0006
ffd3
000e
fff9
fff8
001a
ffe1
0000
0031
0007
fff7
fff7
002f
0016
0006
001a
0017
fff8
fff6
fffc
ffdd
fff9
000a
0000
002e
0008
000c
ffda
ffdd
0019
ffee
001f
0014
0006
0000
0008
0010
000f
0013
002a
0000
001b
0011
000d
0016
fffe
0001
fffe
ffea
0007
ffff
0001
0016
fff8
0020
fff6
ffe8
fff0
0001
000a
fffb
0008
000e
fff4
000e
0007
0009
0017
ffff
0006
fffd
0007
ffe6
fff5
0016
0011
fffe
ffe3
0006
fff8
000f
fff2
0019
0014
0032
0032
0012
fff8
0038
0005
001b
004e
002f
001a
ffec
fffd
fffb
0000
0013
0014
003a
ffe8
ffe8
fff5
0021
ffe3
ffe1
003d
ffea
0012
fffd
0002
0017
0033
fff1
0015
0020
0032
fff4
003f
ffe2
ffd9
ffef
fff4
ffe7
0007
ffcd
ffb7
ffd4
fffb
0017
0000
fffc
001a
000d
001b
001e
0008
0003
0009
fffc
0012
fffa
fffe
0000
0014
0004
ffdd
fff2
0016
ffe1
0003
0021
ffe0
ffe1
ffd1
ffe6
000c
0012
0026
fff6
0007
ffe6
0013
0017
0009
0010
fff1
0004
0016
0005
001f
0015
0003
0000
fff8
0006
0005
0000
0014
0002
000a
ffef
fff1
0000
ffff
0000
0009
fffd
ffe5
ffeb
0003
0008
fff8
fff6
ffea
000a
fff5
0000
0001
000e
0022
0045
002f
ffed
0011
002e
0007
0026
ffff
0020
ffe4
fffd
0017
fff6
001b
0003
ffd6
ffe6
0003
001c
000a
ffe7
fff7
fffe
0015
000e
000c
ffee
fffa
000c
fffc
fff2
0000
0018
0007
0017
fff0
fff9
000d
fffe
000e
fff3
0003
0001
000c
ffe3
0008
fff5
fff5
ffff
001d
fff8
fff4
0007
0000
0011
0009
0018
ffff
fff7
0007
0018
0015
000f
ffec
0008
000a
0012
0006
0000
fffb
fff4
fffe
0013
ffe5
0000
fff5
0003
fff9
002a
0009
0016
000f
0014
002b
fffc
0000
fffc
000a
0006
fff2
0013
ffde
fffb
fff1
0009
001a
0003
0003
fffc
0015
ffee
0008
0021
fff7
0003
001a
0012
ffee
002d
ffff
fff9
0002
fff5
ffed
001c
002f
fffa
fffb
ffec
ffd9
000d
0029
0014
0004
fff8
fffb
0020
0013
003e
002d
004a
fffe
000a
001e
0007
001f
0014
0010
000f
fffd
0021
0012
0000
0007
fff8
fff8
0005
fff2
ffff
0008
ffef
ffe3
fffd
000e
fffe
0016
fffe
0004
fff2
ffff
0016
002f
0018
0003
fffa
fff9
001c
0001
fff7
fff4
fff8
fffe
ffeb
ffea
000d
000c
fff3
fff6
ffe6
fff8
0016
001d
ffef
0018
001f
fffc
0000
ffec
ffe6
ffff
001b
0007
000c
0034
000c
fffc
002d
0011
fffd
0034
0007
002f
0011
0017
ffff
0010
0026
0021
0011
fffb
0000
0009
0009
000b
0008
0005
fffb
ffec
fffe
0013
fffc
fff9
0001
ffec
0019
001f
0000
ffe0
0000
0015
0011
ffe4
ffed
ffe3
0007
fffc
0000
000d
fffb
000d
000c
0006
001c
0019
fff2
0047
0046
fff8
002a
0028
0019
0000
000b
0000
ffe5
0009
003d
001d
fff6
ffd7
ffe7
ffeb
0009
000b
0005
fff8
0000
fff5
fff2
ffd0
ffb5
ffe5
fffb
0012
fffa
0013
fffb
0011
0002
0007
0019
0000
0015
ffff
0008
fffe
0001
fff1
0009
fff6
ffeb
0005
ffe4
ffe7
000b
ffd9
fff7
001a
000f
0017
0015
0005
0000
fff5
0000
002b
0007
fff8
0018
0003
0000
fffc
ffff
000e
ffff
0002
ffef
ffd7
ffde
fff5
0000
0001
0008
000b
ffe8
ffff
fffc
001a
fffa
fffe
ffee
ffd6
0002
0014
0026
001e
ffe4
0012
ffeb
0009
0004
0037
0041
0011
0033
fff1
fff4
0005
001f
0054
000c
fff2
ffe8
ffeb
0003
0021
0015
ffe7
fffb
ffeb
ffd4
000a
003e
fffa
000e
ffec
0031
fffb
fff8
ffe4
fff9
fffe
0017
002c
003b
fffd
002b
0003
0003
001c
ffec
ffff
fffd
0007
0007
fffa
fff1
fff4
fff6
fff1
fff9
0004
ffeb
ffd5
fff7
0002
ffee
ffe6
ffe6
fffe
0008
0020
000a
000a
0002
000a
0016
000e
000b
001d
001c
0018
0004
ffd4
000c
fff3
fff4
0000
fff6
fff0
0002
000f
0019
fff9
0010
0015
001b
000a
ffff
fff1
ffea
0000
fff5
ffe9
ffd2
ffe9
ffff
fff0
fff3
0000
0008
fff2
0015
0026
fff2
fff3
000a
001a
0025
fffe
fff4
fffa
0002
0025
0014
fffa
0002
001f
000a
002e
0014
0007
ffce
ffe8
0008
001d
0001
fff4
ffe7
000c
fffe
000c
001d
0022
0000
0016
0005
0000
0000
001e
000f
0007
0024
ffee
0002
0006
fff5
fff6
ffd7
003f
fffc
fff4
fff4
0011
0001
fff2
0004
000c
0013
0019
000d
fffc
0001
001c
fff4
0016
0004
fff9
ffed
0004
fff5
fffb
ffd7
fff4
ffcd
ffec
ffd9
0007
0003
001f
fffa
ffe7
0001
0012
0017
0005
fffd
fffc
ffec
0008
0002
0005
ffe9
fff0
000a
ffe3
000f
0020
002f
0006
0005
001c
0019
fff7
001c
0055
0007
000b
0013
fff2
ffef
0028
0010
fff7
fffc
fffc
000a
000f
002c
000a
ffe2
ffd0
ffff
0022
002e
002a
fffb
0013
003b
001e
002f
000f
0014
0018
0022
fffd
fff2
000a
0002
fffd
000b
ffef
0001
ffe3
0000
fff6
fff6
0012
ffde
fff4
0004
000c
fff8
ffe1
0008
ffff
ffe1
fffa
001a
fff5
0002
0021
0019
0006
fff8
0005
0013
000c
000c
ffe8
ffef
ffe2
fff9
0001
ffea
fff0
0008
001c
0033
0031
0046
0031
0026
fff0
fffa
0006
001d
002f
0023
fffe
0027
0019
0023
003d
0056
0045
001c
0002
002a
0016
fffa
ffed
0000
0009
fff6
fffe
fffe
ffe8
0000
0019
0016
0006
fffd
002b
0028
0028
0014
0008
0006
ffe3
0009
0032
0006
fff8
ffe7
0019
001b
000e
001a
0023
0006
001b
0000
001e
0011
001c
001d
0000
0023
ffd1
000c
0017
fff7
fff3
ffd8
0006
0002
fff0
000f
fff4
000f
ffd0
0001
0015
fff7
0014
0005
ffe8
fffd
0005
fffe
002c
0027
ffee
0001
ffce
0007
ffe0
ffe5
fff5
ffe3
fff5
ffd4
fff6
0005
000d
000d
fffd
0017
001b
fff8
fff9
0008
000c
ffe1
0007
0011
0002
fffb
fff6
0000
fff1
fff2
0005
002b
fffd
0007
0016
000a
ffd9
ffc5
0033
0028
000c
0019
0008
fffc
fff1
fff3
0016
fffb
000d
000a
0005
fff8
0034
ffe7
ffcf
fff5
0016
ffea
fff3
0000
000d
001c
fffd
ffef
000d
0003
0008
0006
fff9
ffec
ffde
fff4
0013
0008
fff6
000d
0015
000f
fffc
001b
0013
ffec
0000
0016
0006
001b
0006
0025
000c
0007
0011
0003
ffda
0013
fff8
0012
ffff
000b
fffb
fffa
fffd
0013
ffde
ffe0
ffe9
0013
0002
001c
0004
0005
0031
000e
0033
001f
0016
0006
fff7
0013
0014
0004
000a
000a
0005
ffd6
0001
fff7
ffd2
ffed
fff4
fffe
0003
0011
fff7
ffef
ffe5
fff9
ffef
fff6
0021
0009
0008
0007
fffb
0005
fffa
0018
003d
0010
000c
000a
0011
fff7
ffe7
ffe6
ffdc
fff0
ffcf
fff8
0007
0016
0026
003f
0026
0038
0009
0007
ffff
0007
000d
0026
0026
0008
fff4
0012
001c
0033
fff7
0000
0013
0005
002f
0006
0009
ffdf
ffdb
ffef
0006
0000
000b
0014
000d
0008
0018
002c
fff7
0016
0010
002d
000e
000a
fff4
ffea
ffef
ffff
000e
fffe
ffee
fffe
0036
004a
0022
0030
000c
000e
002a
0010
001f
001e
fff4
0003
0020
0005
fffc
fffb
fffb
0000
0002
fff9
ffe2
0005
fffb
0000
ffff
fff3
0028
fffd
fffe
0014
0011
0000
fff7
001b
0012
0027
0029
fff2
0004
fff9
0013
0005
fff7
fffe
fff1
fffb
000d
0000
0009
0013
0011
0016
003d
0014
000e
000f
000f
0002
0015
ffec
ffdf
fff9
ffef
fff3
fff4
000b
fff2
ffe1
ffef
fff5
fff6
0008
0005
fff7
0008
0003
ffff
000e
0015
0030
0002
fff9
fffa
0039
0003
0006
fff3
fffb
0004
0018
001e
0000
0013
000d
0013
0000
000c
000f
000e
0001
000e
0016
0022
0009
0002
0001
fff8
0000
fff2
fff3
000a
0000
fffc
0010
fff9
ffec
fffa
000f
fff6
0003
0015
000d
ffe1
0001
001a
0017
0007
0009
002e
0003
0007
0012
fff6
0012
000f
0014
0004
ffff
000c
fffe
fff7
fffd
ffea
fffc
fffd
001c
0018
ffeb
fff3
fff4
0000
fff2
000c
0008
fff6
ffec
000d
fff9
fff1
fff9
ffeb
0004
fff7
ffde
0002
fff2
ffee
0043
0014
ffe2
ffff
0017
0010
0014
0011
ffff
fff9
002d
0015
002a
ffef
fffe
ffd1
0007
002a
001c
fff0
ffe6
000a
0008
fffb
ffb8
ffcf
ffda
ffea
0018
0020
0004
fff6
001e
0015
000f
000d
001d
0001
001f
0008
002d
000e
ffea
000d
000a
fff1
0002
ffd8
0022
fff0
0006
0030
0000
fffc
ffd9
002f
0000
000a
000f
0003
ffec
000c
fff4
0016
000c
ffff
fff9
ffe0
ffd7
0005
fffe
0000
fffd
ffdf
ffe9
ffea
fff9
0011
000a
000a
001a
000e
0033
0017
000d
ffdf
ffd9
0025
fff7
0028
ffe9
ffff
fffe
000a
0018
003d
003c
002a
0008
0020
0042
0005
000e
0008
0006
fff2
000f
ffec
ffe7
fff2
000b
0013
0014
fff9
000f
0019
002b
001b
0020
ffeb
fff8
0014
fffc
000c
fff7
fff9
001c
0009
001e
0015
0026
000e
0000
0000
0011
fffa
0015
0033
0038
0002
ffea
fff8
0009
0002
ffde
ffc0
003b
fff8
fffb
0010
fffe
fff4
ffea
004b
0000
000d
0011
fffe
ffe0
fffc
ffed
000d
fffd
ffed
ffe7
ffea
0005
0015
fff4
fff5
fff7
ffe2
ffea
0023
0003
0018
0021
0016
005a
0030
ffec
000f
000a
001d
000f
0031
0024
fff2
000a
ffd3
fff6
fff7
002c
ffea
002e
0036
fff6
0008
fff6
ffe8
fffb
0052
0028
000f
fff8
ffed
fff2
fff8
ffea
fffc
fffe
0024
fff6
fffa
0021
0026
001a
fffb
ffd3
0005
0002
0015
0028
fffc
fff4
0009
0013
fffc
fff2
0009
0001
000f
0004
0012
fff5
fffa
ffe2
000c
ffee
ffee
fffe
0000
0000
fff8
fff3
ffe8
fff5
0000
fffc
0000
fff2
001f
001b
0018
0017
000c
0001
0000
0017
0015
0009
001c
0012
0015
0000
0005
fffd
ffe7
fffc
fff9
0000
0008
fff8
001e
002e
0018
0028
0000
001c
003b
000a
0006
ffdc
0007
000c
0034
fff9
000d
0003
fff7
ffff
0036
0004
0021
fffd
0015
000f
ffe0
fffc
fff9
0026
000d
0015
ffee
ffeb
0008
0004
0009
0022
fff6
000c
000f
0020
fff4
0005
ffeb
001c
0025
000c
0022
fff8
0009
0001
0010
0022
fff8
0002
0004
fffa
fffa
0016
0001
0007
0005
ffeb
fffe
0019
0005
fffd
ffe1
ffeb
0000
000b
0012
000a
0011
001d
fff3
001a
000a
000c
fff6
0016
0009
0006
fffa
fffe
fff5
ffdb
fffd
000b
0000
ffef
0003
fff9
ffd6
ffdc
fff4
0007
0006
002e
fff8
0007
0006
0001
0001
000a
fffc
fff7
ffdd
000c
ffe2
ffdf
0000
0001
001a
000d
001b
0009
fffd
000b
0009
000e
000a
0002
fffb
ffe5
0004
fff5
0001
0027
0009
0026
000a
0008
ffdf
0041
003d
0008
fff8
000d
0000
ffe7
001b
0006
0015
0012
ffdf
ffef
fff3
ffcd
000e
0018
0013
0017
001b
fff6
fff7
0007
0012
0001
0017
0000
fff3
0004
ffed
0007
ffff
fff6
000f
fff1
000a
0016
0000
fff2
ffee
0007
0000
001f
fff7
0021
fff9
001b
ffed
000b
fff1
ffee
0021
fffe
000a
0004
0003
fffe
0003
ffed
000c
0000
0002
0000
fff8
002a
0018
0000
000a
0004
0006
fff0
0001
0005
0023
ffef
0003
0003
fff9
000c
002c
000f
ffec
0016
fff6
0000
ffff
001a
ffea
0004
002e
0011
000b
ffee
0025
0000
001f
000a
0001
fff5
0008
fffa
000d
0014
001d
0012
ffde
ffe7
fffe
001a
001a
001f
000c
ffe1
fff3
0003
fffd
fff1
fff2
fff8
0002
ffee
0007
0002
0000
0005
fff4
000e
000a
0009
0008
ffee
fff6
0001
0011
0013
0039
000d
0015
0002
fff1
0007
ffd5
fff5
0019
000e
001b
0011
ffff
ffd2
000f
000b
0019
0015
0016
fff0
fff1
ffb7
ffd3
fff7
ffff
fff4
0029
001e
fffb
ffff
0022
001e
0023
001b
0028
0032
0023
ffd6
000d
0015
001f
0031
0004
001e
0024
ffe3
ffd5
002c
0018
0002
ffec
001b
ffe4
0000
001e
ffdc
ffdd
ffdc
000a
0022
0035
0031
ffef
ffec
000b
0000
0006
fff9
0025
ffdc
0002
fffb
fff2
fff5
fffb
0004
0030
002a
0026
fff2
000d
0023
ffe7
ffee
0003
000e
0039
0035
ffe6
0004
fff7
000e
0009
000f
001d
ffeb
0022
0003
fff3
fffa
fffd
fff7
ffd7
0013
0014
ffef
0006
fffb
0019
0028
0000
000f
001b
0000
fffe
0028
ffea
002d
0000
ffff
0013
002b
ffec
000f
fff6
fff8
001a
fff4
ffee
ffda
fffd
fff8
0006
0019
fff4
fffd
ffdb
ffff
fff6
001a
fffb
fff0
ffed
0027
0006
0024
000c
fffb
000c
000b
0029
ffea
001a
0009
0026
fffa
ffff
fffa
000e
fffc
0012
fff5
fff1
fff9
001b
001e
0006
0009
0004
fff8
0002
fff6
0014
0006
ffd7
0007
ffe4
fffd
ffe7
0001
0008
0004
ffdb
ffe8
000d
0007
0010
001c
ffcf
ffe9
ffeb
ffd9
000a
0024
fff3
ffb0
ffeb
ffdd
fffb
fff0
fff4
0000
ffa5
ffa2
ffee
fff1
0011
fffc
fff3
ffe3
ffd1
fff6
ffe0
ffe7
ffea
0016
0030
ffe5
fff0
0017
0016
0000
fff5
ffd9
0007
0000
fffb
ffdf
000e
fffb
ffdd
ffe2
0000
001c
000f
0019
fff7
0035
004d
001c
0011
000f
001b
0006
0000
ffe8
0004
fff4
ffde
ffe2
ffeb
0011
fff3
fffa
fff2
ffee
ffe5
001a
0026
0007
000b
ffff
000a
fff9
0012
ffef
fff0
000a
0025
fffd
ffe4
0009
0015
0017
000c
fffd
ffe5
fff5
0000
0017
0017
fff2
ffe4
0021
0005
fffa
0008
0021
ffe2
fff9
ffff
fffc
0023
000b
0003
fff3
0006
000b
000e
0008
000d
0003
fffc
fff8
0006
fffc
fff1
fffe
000b
fff9
001d
000a
ffe7
fff2
0003
0020
ffff
fffd
0008
0011
fffa
0013
0012
ffff
fffe
000a
0012
fffa
001e
ffea
0004
0006
fff5
fffe
0006
0023
0003
0012
fff4
fffc
0008
fff5
0012
fffc
0008
fff7
000f
0009
000d
0025
0018
000a
fff6
fffd
fffb
fff4
fffb
ffec
fff8
fffc
fff5
ffed
fff5
fffc
0007
0004
0018
fff5
fffa
000a
0000
0001
0010
0016
ffef
fff0
fff7
0000
0001
0005
fffc
ffe6
0002
0004
ffff
fffd
fffa
ffe8
fff6
0008
fff7
001a
0013
0012
0008
0004
0015
0009
000c
0019
0015
001d
fff9
000b
fff2
0006
001a
0004
fff9
0008
fffd
0011
ffee
fffa
fff8
ffde
ffe5
0003
fffa
000b
000f
fffd
0000
fffe
fff6
0000
001a
0021
0011
0009
0001
ffd7
ffea
0006
0002
ffee
000d
fff1
fff7
000b
fffb
ffe7
fff0
fffc
001f
0018
0013
0006
fffd
0011
0017
0025
0006
ffe9
000f
0002
0003
ffff
fff4
ffe2
0000
fffc
0004
fff8
ffd0
ffdf
0002
fff5
fffe
000e
fffa
fff9
0000
fffb
ffef
0003
0008
fff6
ffcc
ffd4
ffea
fff2
0011
0002
000b
ffee
000e
000c
0028
000f
0011
0012
0007
0034
0017
002d
0022
000d
0003
0016
fffe
ffff
000c
0017
fff0
0017
001b
fff2
0008
0019
fff9
fffb
ffe8
ffd0
ffd0
0007
000b
0008
0006
0000
0007
0001
0002
0007
0002
000d
000c
0008
fff0
fffd
0003
0017
0019
fffd
ffe7
0003
ffef
fffa
0022
fffa
fff1
000a
0014
0017
000d
000d
0007
fffa
000a
0006
0004
fff2
0006
000e
0001
fffb
0000
fff1
0013
0002
0014
fffe
ffee
0002
0000
fff4
fffa
000d
0015
fff5
0008
ffe3
0009
0004
0007
0000
001b
0030
fffc
fffb
0004
0016
0000
fffe
0000
0000
000a
000d
fff8
fff8
0001
000a
0000
0007
0008
0010
fff5
0016
000d
0000
001d
0009
001d
0012
0016
000a
000e
fffa
ffe8
fffc
0014
fff4
000c
000d
000a
0015
fff2
ffe8
fff9
fff5
fffd
0001
0007
0024
0011
fff6
ffec
000e
0022
000b
0015
ffec
fff7
fff6
ffee
000d
000f
0005
ffef
001d
000d
ffe8
000d
0026
0020
fffe
fff3
fff8
002c
000b
fff4
0000
0011
000b
001d
0010
fff8
0003
0023
000c
ffed
0006
000e
fff0
0001
fff7
0008
ffe1
0004
0025
fff8
ffe2
ffeb
0000
fffd
0000
ffe0
0001
0015
000e
fffb
fff2
ffff
ffed
0004
0025
0010
fff3
0018
0009
fff2
0010
000a
0019
0010
0005
0010
fff6
0011
001d
fff6
0010
0008
0001
0001
0010
fff7
fff5
0000
0009
ffec
001a
000c
0006
fffe
fffa
ffeb
fff4
0000
fff5
0000
ffcd
ff9e
ffe7
ffff
ffed
0019
ffe5
fff0
ffc4
ffe1
0013
0007
fffa
fff7
ffd0
0016
fffe
fff3
0012
0013
fffa
ffe4
000c
0014
fff0
fff5
0004
001c
ffcc
ffed
fffa
ffe4
ffdf
ffef
0002
ffe2
ffdc
000c
0004
ffde
0003
001a
0009
0007
0014
fffb
002a
ffe2
fff5
0009
fffb
fff9
000a
fff1
0006
0005
000c
000e
001b
001b
fff3
0006
0009
fff1
ffef
ffed
fff5
0000
0001
0020
0000
fff2
0019
000d
001c
0004
0010
000d
001c
0005
0026
000f
ffe5
ffea
ffee
000a
fff5
fffa
fffc
fffa
0016
0013
0001
fff6
fff0
0002
000f
001b
ffff
0009
fff8
0008
0005
0013
0007
0010
002e
0019
0023
000a
0019
0001
0009
0016
0004
0000
ffeb
ffd4
ffac
ffea
0008
ffd3
0000
000a
ffe7
ffb8
fffe
000a
000e
0029
0007
0006
ffe4
ffec
0018
000b
ffef
fffc
fff4
ffe6
ffff
000b
0002
0012
fff6
ffff
ffd9
fff4
fffd
0001
0010
fff5
0000
000a
0021
0017
0007
000e
0011
fffd
0009
002c
fff9
fffa
0011
fffc
fffc
0008
0019
0000
0001
ffef
0000
ffcd
0007
0001
002b
0003
fff4
ffff
fffd
0004
fffe
0003
0004
fff7
000a
fff3
0025
0022
0006
0002
ffe2
0001
0000
0002
0006
000f
fffe
0006
0006
000a
ffec
0015
000f
000a
0008
0003
0017
0000
0026
0006
fff6
001b
0002
fff5
ffda
fff8
0001
000d
0002
fff7
ffeb
ffd9
0002
001d
000a
0020
000b
ffe1
ffdd
0018
0024
001f
0005
000f
000b
ffee
0013
ffec
0019
0015
0008
fffa
fff0
fffa
ffd7
fff7
0009
0015
fffd
ffec
0025
fffe
001b
0036
0007
0023
0017
fff4
ffe9
000a
ffeb
fffc
0010
ffff
001a
fffc
0004
ffff
fff2
0026
0016
0011
fffc
0010
fff3
0007
0012
0003
000d
0004
001b
0000
000c
0014
ffd5
001a
0018
0003
fffd
000c
0000
0001
ffeb
0009
001c
001f
000c
ffe3
0023
002b
0009
fff2
000d
0008
0016
0005
0001
000d
0012
0007
fff8
ffd9
ffce
ffd8
fff7
000c
001e
0006
ffd9
ffc0
000e
000b
0025
0001
fff2
0008
ffe5
0016
001b
fffb
fff9
fff3
fff0
fff9
0013
001f
ffff
fff6
ffeb
0012
ffee
0011
fff7
0008
0009
fffe
0013
0016
0015
002f
0016
0014
fffd
fff3
0004
003b
0017
001a
fff8
000e
ffc9
ffcc
ffdb
0000
0001
000b
fff8
ffc9
ffdd
fff2
0011
0001
fff6
000c
0006
fff6
001e
0003
001c
0030
fffd
fff5
fff6
0003
ffe0
ffeb
0003
0000
fffc
0015
0014
0009
fffd
fff0
000d
0013
0003
0007
001c
0002
0012
000f
fffa
0018
ffeb
001b
0006
0014
fffd
002d
000f
0015
0021
000f
0005
001b
0016
0012
000e
0029
0016
000a
002a
fff5
fffa
0013
ffea
ffe4
0008
ffed
fff8
0001
ffff
0023
0008
fffd
fffa
ffe2
ffea
0003
0013
0015
fffc
000b
fff8
ffef
000a
fff9
0019
0012
0006
ffff
fffc
0023
001e
0031
001a
ffec
fffd
ffdd
0002
fff4
ffe9
0001
0026
fffb
ffdf
0008
fff0
0013
0028
003d
002e
0008
fff1
0004
000e
000f
fffa
000e
0012
000b
001b
ffea
fff2
0004
fff1
0002
0028
001a
fff8
ffed
ffdd
0020
001e
001a
000f
fff6
ffeb
0012
0014
0018
fff4
001d
ffed
fffc
0014
000f
0006
0006
001b
ffec
0007
000f
0007
fffd
0002
000c
000d
fff6
ffe8
0012
ffe7
0000
fffb
fff5
ffe8
ffe7
ffeb
0011
0000
0018
fffb
0000
fff4
fff0
fff1
fffd
fff9
000d
ffef
0000
0014
0003
fff8
fff4
fff4
0009
0018
001e
0016
fffa
0003
0015
0026
0017
0004
fffa
0010
fff6
0002
0006
fff7
fff4
ffec
0002
0010
0009
000c
0019
ffdd
ffdd
fff0
fffa
001b
0026
0013
ffed
0000
0018
ffff
000f
fffa
fff5
fff8
0006
0008
fffb
0003
fff5
ffdd
fffb
ffff
001b
0018
ffe9
ffec
0006
0006
001b
0001
fff0
002e
0008
0005
001f
0027
0008
0010
000a
fff3
fffd
ffff
0015
000f
0000
0007
ffea
0008
fff0
000a
000d
0015
ffed
0009
ffeb
ffe3
fff6
0010
000a
fff6
fffe
ffe6
ffff
fff4
0009
0023
ffed
fffe
fff7
fff7
0014
ffef
0002
0022
0001
0002
0026
000b
ffff
0003
0018
0003
ffdf
0012
0010
0000
000a
0027
fffd
fff7
0003
ffdf
ffe2
fffb
002a
0018
003e
0000
ffe2
ffdb
ffa5
ffcf
001a
000e
ffff
002a
0007
0007
ffed
0000
fff1
ffe5
000b
001d
fff2
fff5
fff6
fffa
ffeb
0016
0016
fff5
0008
ffe8
fffc
0009
000d
fffb
ffff
fff8
0013
0019
0001
0013
0010
001c
0001
0014
0013
000d
0001
000a
ffff
0007
fffd
fff4
0008
ffe9
0012
fff6
ffe1
ffe0
ffe3
0014
000b
0017
0030
0024
000a
0015
fff9
0013
0021
0023
fffc
0014
ffe8
ffe8
000e
0015
0018
000f
001a
0010
ffe6
0008
0015
0002
fff1
fff6
0006
fff3
ffea
ffea
ffe9
000f
000e
0015
001c
0002
fffe
0016
0013
0008
000c
fffe
0001
fff8
000c
0004
000b
0000
ffde
000b
001c
0015
0004
001d
0000
fffd
0002
0007
ffc9
ffe9
000b
000b
000e
0010
0012
fffb
0000
ffec
0012
001e
000b
fff6
fff2
001e
fffe
000f
001d
0021
0010
fffe
fff5
ffd9
0000
002a
0004
0031
fffa
fff1
fff3
ffe9
ffff
000b
000a
ffd9
ffda
fff9
fff8
0014
001e
001b
0003
ffea
0020
fffa
0000
0011
0013
fff4
fff1
ffea
ffe9
0005
0004
fff1
ffe4
0006
ffdb
fffd
0011
fffa
ffe0
fff0
0007
001e
002c
0026
001d
001f
0011
0025
0003
0006
fff1
fffa
0009
ffef
fffe
0000
fffd
fff4
ffed
0004
0006
ffc5
ffdd
ffea
fff5
0014
000e
fffe
0005
0005
0000
fffa
0014
0017
0002
fffe
000f
fff0
0003
0011
000b
ffe5
fff2
0009
0005
0009
000a
002d
0000
0013
000d
001f
000c
fff0
000d
000f
0026
001d
000e
0000
ffe3
ffe1
fff6
0004
0016
0028
0017
fff5
ffe7
ffe6
ffee
0003
001e
ffee
0003
ffee
0012
000a
0000
fffd
ffed
ffec
ffdb
0000
fff9
fffb
fff6
0015
0009
0012
0002
fff7
0008
000c
002a
0018
fff2
fffc
ffe5
0011
fff1
001d
0012
000d
000d
ffed
fffd
000c
0016
000d
0009
0007
fffb
fff7
fff4
fff4
0001
fff3
0018
0001
fffb
0020
0003
fff8
0007
0016
0001
0001
0000
000b
003a
0014
001c
ffdc
ffde
fffc
0020
0004
0009
0012
fff9
ffdc
fff5
0019
ffde
fff3
ffef
fff8
fffa
0009
0009
ffd3
0005
0022
fff6
0027
0010
0014
fffb
0015
0008
0007
fffa
0009
0025
fffe
fff8
0003
000d
fff0
0012
0000
fff3
0009
fffe
002c
000d
fff9
0001
0006
fffe
0001
ffea
fff6
fff9
0004
000b
0018
ffe2
000e
0016
0008
0003
000f
0006
fff7
fffc
fffb
000b
0018
000f
001b
ffeb
fff8
0021
0009
0004
0009
fffe
001d
fffe
0002
000a
0004
ffe8
0002
001d
fff5
001c
0006
fffa
0006
0020
001a
0007
0001
fff4
ffeb
0007
fff9
0005
fff6
ffe4
fff0
ffed
0003
0008
000f
fff3
000b
0006
0016
0011
000c
001d
000d
0010
0002
0006
000f
000c
fffc
000a
fffb
0002
fff6
fff2
0035
0018
000c
000d
fffa
0016
0008
0009
000e
fff7
ffff
000c
ffee
ffe2
001e
fff8
0018
0000
000d
fff1
fffd
0015
0006
0000
fffa
fff2
000e
0029
0016
fffe
0005
ffea
0000
0018
000f
fff5
fff4
0017
fff7
fff5
000b
0006
0036
ffe5
0010
000f
ffe9
0004
000f
0016
fffe
0000
fffc
fff8
000c
fffc
0011
0001
fff6
ffe4
fff5
fff1
ffef
0000
000c
0017
0003
000a
0006
ffca
fffa
001b
001f
0007
0000
000e
0003
0045
0028
fffb
0005
0008
fffb
fffa
0009
0016
ffec
0017
0017
ffd0
ffd0
fffb
0016
fff5
0013
0001
ffb4
0004
fff8
001b
0012
0001
fff2
0018
ffe9
0007
0011
0006
fff6
ffde
fffb
0008
001b
fffd
fff7
0000
000b
fffd
001a
fff9
ffe8
ffe3
ffd8
0005
000d
0016
0019
ffe0
ffdd
fff6
004a
000b
0015
000d
0007
0004
0026
000c
0012
0013
001a
fffe
fff4
fff6
ffe2
0008
0000
0019
0002
ffd4
ffd3
0007
0010
000c
0000
000d
ffcf
000d
001a
000b
001f
000b
ffff
0004
0014
ffff
000f
0017
0032
001a
000c
0010
ffe1
0017
ffe3
0006
0019
0024
000a
fff9
000f
fff5
0000
fff5
fff4
0004
fff9
fff4
ffbe
ffef
fff0
0000
0024
0023
0007
fff9
0000
0015
001f
0011
fffd
0016
ffe4
fff8
fff5
0005
0010
fff1
ffe1
0015
0008
fff8
0000
0006
0011
0001
0014
0009
ffed
ffc3
ffd6
ffe4
000e
0012
ffec
fff6
ffcf
ffe2
0030
0015
0009
fff5
0003
0001
0043
fffe
001c
000c
0004
0000
fffe
ffe9
0000
001c
000c
0007
ffda
ffec
ffec
0005
000b
0000
0000
ffe7
ffe9
fffc
0000
ffe1
0019
0018
fff4
ffd5
000c
0017
ffe9
fffd
0002
fff2
ffa7
ffc7
0016
ffec
ffea
fff5
0001
0031
0032
000f
0039
0012
fff3
0000
0016
0010
ffc4
0022
0000
ffee
ffe4
ffd6
0013
0036
0021
fffc
0000
ffea
001d
0015
ffff
0018
ffde
000a
0014
0008
fffe
000b
fffa
fffa
0012
fffc
000b
000d
fff2
fffe
0003
0027
0000
0006
ffef
0002
0014
0003
fffa
ffef
0009
0014
0001
000e
0013
fffb
ffe8
fff0
0023
0012
0008
fffb
0018
fff4
0014
0010
000d
0006
000d
0006
0006
0004
0019
0007
0003
fff1
fff2
0002
000d
0008
0007
001f
0038
001e
0030
0012
0021
002a
fff0
0009
000e
0026
0007
0007
0016
0002
fff2
fffa
001f
0009
fff7
ffdd
0004
ffef
000c
fff7
0001
fff7
001f
0010
fffc
ffec
0019
0016
002b
000e
fff4
000a
ffff
0012
0010
000e
000f
0001
ffff
0001
0000
0001
ffea
001d
0002
0020
0007
0007
fff5
0004
0011
0001
0009
0000
fffb
fff0
fff4
0000
ffff
0004
0000
0009
001b
fff8
0013
0013
0005
0004
0031
0007
fffc
fffb
0001
0006
ffe6
0006
000d
ffdf
fff5
0010
fffa
0003
0006
0011
0000
fff3
ffc8
ffe3
ffe4
fff6
000a
ffe8
ffe3
fff1
002b
0051
0031
0016
0012
0010
fff6
0040
000a
0020
0012
002c
0003
ffeb
002a
0014
0025
fffe
fffa
000b
ffcb
002b
0016
0009
fff5
0005
ffff
ffe0
003d
002a
001f
0016
ffea
ffee
fffe
000e
0011
0015
fffb
fff6
0005
000a
fffe
ffec
ffe9
ffcd
000d
fff2
0012
000e
fff3
ffff
ffff
000e
0005
fffe
0004
0007
001b
0000
fff0
0016
0012
0004
ffff
fff3
0000
fffc
fff3
0016
0021
0005
000f
fffe
fff9
0014
ffef
0001
0016
000d
0000
0015
fff5
0008
ffe7
0009
000d
fff7
001b
fff3
fff3
fff5
0015
000c
000e
fffb
fff0
0010
0001
fff5
fffb
fffa
000f
001b
000d
0000
fffc
0004
ffeb
0000
fff6
fff8
0005
0004
fffa
ffff
fffc
0004
0002
fff7
ffe2
000b
fffb
0011
0008
ffec
ffe2
0004
000f
0022
fffe
fffb
ffd9
fff3
0000
fff4
000e
0010
fff2
000b
ffff
0009
0005
ffe1
0001
0002
001e
0019
0009
0005
001a
fffd
fff4
0009
0025
0003
0005
0000
fff2
000b
0004
000d
fff5
fff5
0033
ffd9
fff4
0017
fff9
fff2
0002
001c
fff0
0013
0017
0019
0023
0006
0000
ffe5
fff4
000b
fffa
ffd9
ffd6
fff5
0007
000a
ffee
ffc5
ffcd
ffc3
0002
fffa
0019
000a
fffb
001b
fffd
fff1
ffe5
fffd
fffb
0003
001e
0026
ffe9
ffe8
0003
0005
0014
ffea
ffc3
000b
ffeb
0012
fff3
fff1
ffcc
fffd
0003
0021
0009
0005
ffd8
ffd3
ffe4
fff8
0009
0004
ffe4
ffbe
ffb4
ffde
ffd1
ffe2
fff4
001a
fff6
ffed
001a
0002
fff0
000c
0021
000c
000b
ffe1
000c
001f
ffee
0000
0008
000e
0003
0009
0002
fff5
fffb
0007
ffee
fff6
ffee
0001
fffc
0017
0000
fff1
0000
0002
0009
fffb
0002
ffff
0004
000b
0019
0028
0005
0001
0013
0011
fff6
000a
0000
fffe
0002
0010
0006
000a
000b
0001
fff6
ffff
001e
0027
000c
0014
0024
0000
0014
0003
001c
0013
0009
0026
fff0
0018
001f
000b
000a
0006
0014
fff0
000a
000f
fffb
000c
0003
ffcb
ffe4
ffe9
0010
0014
0005
fff3
fffc
fff4
0001
0013
0007
0004
ffee
000f
0009
0000
0010
fffb
0004
0008
001f
ffea
0004
0024
001c
0025
0014
fffe
0000
ffe5
0003
fff3
0008
0001
000a
0002
0001
ffda
ffdd
ffd1
fff8
fff7
001d
0001
ffc8
ffe8
000e
fff0
ffe8
0020
0002
ff8d
fff8
ffef
0006
000e
fff1
ffef
ffdc
000b
000b
000b
0013
fff2
0004
001f
0012
ffdf
fff6
ffec
001b
ffee
000e
0012
0016
001c
002e
000d
ffe8
fff7
fffd
fff6
fffc
001e
0009
0014
0018
0017
0011
ffe7
0005
000e
ffe5
ffed
fffc
0000
fff7
0001
0007
fff0
0019
0000
0013
0035
0003
fff4
ffe0
0006
0022
fff7
fff5
000e
fff3
000c
fff9
0004
0009
0010
0009
0006
0000
000a
fff4
0010
0014
0011
0012
0006
fff8
0009
fffb
0000
0007
000e
000d
000e
fff8
0000
0009
0007
0008
0003
fff8
fffd
000b
000a
000d
0010
000d
fffc
0013
000d
0017
0007
0005
000b
ffde
ffee
0019
0009
000f
0001
fffa
fffc
ffea
fffc
0006
fff0
fffc
ffe3
fff9
001a
ffff
ffee
ffe8
fffd
fffb
0005
fff2
0007
000b
0000
ffeb
fff6
001b
0000
0004
0025
0008
fff1
000d
0012
000e
ffff
0016
ffee
fff8
fffb
0003
002a
0011
0006
0008
0018
000e
fff3
fff9
ffec
0010
ffff
ffef
fffa
0014
000b
0009
fff0
fff9
fff3
ffee
0017
fff7
0011
000b
fff2
0020
ffdf
fffc
0011
0021
ffef
0000
0004
fff8
0002
000e
fffd
0031
0006
0029
0011
0016
fff8
fff7
0008
fffd
0003
ffec
fff7
0018
ffed
0002
fffd
fffd
0002
0012
0004
fff0
0019
0001
fff7
0003
0014
fffa
000e
fff7
fffd
ffea
fffc
0027
fffe
000d
fffd
0007
ffec
fff8
0001
0007
0012
000b
ffeb
fff8
000f
0021
0009
0006
000c
000c
0009
0001
fff9
000b
0004
0036
001e
fffe
ffe7
0010
0025
0009
0006
ffef
0000
0011
fffb
ffeb
fffc
0004
0000
ffee
ffff
fffd
000c
ffe3
fff5
fffb
fff5
000c
000c
0013
0013
0010
0012
0007
fffa
fff5
0004
000b
0000
000d
0014
0012
0003
fffe
0016
0006
0001
0015
0011
0012
fff0
0018
ffff
0017
ffd5
000a
000b
0027
000f
fff0
ffec
ffe2
fffe
000c
0011
fff2
000f
001a
ffdf
001c
fff1
0004
fffc
0009
ffea
fff0
ffff
fffe
0024
0011
0001
000c
0004
0014
ffeb
000e
0002
0019
0019
ffec
000a
0009
fff0
0003
fffc
000c
0001
000a
001c
0007
0011
ffff
000b
fffb
ffdc
0002
0017
0001
ffdd
ffed
fffe
fffc
0001
0004
0008
fffe
0007
0008
0002
0005
ffec
fff9
fff0
fffb
ffed
fff4
fff9
000c
0000
000d
ffeb
fffe
000e
fff0
fffc
0014
fff7
0001
0002
0015
fff9
fff9
0007
ffe8
0006
000e
fffd
fff8
fff4
0015
0001
0002
fffb
fff7
0009
fff5
fffd
0004
0001
fff9
ffed
fff8
000c
0001
ffee
000f
0001
ffed
0003
0000
0020
000e
fffa
ffea
000e
0016
0023
0017
000f
000e
0009
ffe9
0012
0011
0009
0012
0018
ffe5
0010
0000
000d
fffd
0021
0012
ffff
0004
0024
0005
000f
0028
fff3
0010
fffc
0004
0014
ffe8
fffc
000f
0007
0000
ffd8
fff1
fff3
000c
fff5
0002
ffd1
ffeb
ffee
0013
fff9
0012
0001
fff4
0016
fffb
001f
0003
000f
001c
0014
0004
ffe8
fffb
0010
000c
fff9
0012
fffe
000c
fffd
fff7
0010
001f
fff2
0000
000f
000d
0000
ffe9
fff4
ffce
fff8
0011
001f
0011
fffe
ffeb
fff2
ffff
000e
0015
0014
0005
ffe0
fff2
fff4
fff3
ffeb
0000
0012
fff1
000c
fffe
0078
0073
0010
000e
ffff
fffc
0059
003f
0038
fffa
fffb
0012
0001
0052
0027
0010
002c
0007
0018
000a
0032
0032
0007
fff8
0002
0013
000a
0007
0024
fff2
ffdb
0006
ffe0
fff4
ffd0
ffff
0001
ffed
001a
0011
0007
ffee
ffdd
ffe8
ffdc
fff2
fffa
0002
fffb
000d
0008
0009
002f
0004
0001
ffe0
ffe6
fff8
fff7
0019
fff8
fff1
fffc
0004
0018
fff8
000b
000d
0000
fffb
fff9
0000
ffef
fff9
fffa
ffce
fff5
0012
000c
ffff
fff2
000b
000c
0006
fffd
0014
000d
fff6
0000
ffe9
0005
ffff
000b
0011
fffc
fffb
0014
ffec
ffe5
0022
ffff
fffe
0009
fff0
0014
fffc
0000
ffe5
ffed
0006
0001
fff9
ffef
000b
fffb
ffef
000b
0000
ffe9
fff4
ffd9
0024
001d
0001
fffe
ffd2
ffde
ffeb
0013
0004
0001
ffe4
ff98
ffd2
002b
0019
fff9
fff8
000e
000a
fff5
fff1
fffc
0028
ffea
fffd
0016
0009
0001
0013
001e
0004
ffe0
fff6
ffe6
ffe8
0003
001a
ffeb
0001
0006
fff6
0011
0012
fff7
0006
ffe2
ffe8
fff9
fffc
000d
ffe9
000b
fff2
fff3
001c
0013
fffd
fff8
0002
ffc2
0000
0011
0026
0000
fff3
ffec
0000
fff2
0014
0004
0018
0009
fffa
0014
0011
000f
0002
ffff
000b
000f
000c
fff8
ffec
ffea
fff9
0001
0000
ffee
fff7
fffc
ffe1
fff5
0000
0010
0000
ffe1
0006
0004
0017
ffd0
ffeb
fff4
0005
fff1
fff8
0000
fff7
0009
fff4
ffec
fffe
0010
0007
0011
fff3
ffa7
ffdb
fff7
0025
fff7
fffb
0016
0000
001e
0026
000e
0001
002a
0010
0015
001c
0012
0000
ffee
0007
0009
001d
0003
0012
fffe
fff5
0013
ffed
0009
0002
000e
0007
fff2
ffe9
fffb
fffc
000d
0019
0025
fff4
0007
fffe
000c
fff8
fff5
000a
ffe8
0009
fff6
000c
ffe9
ffeb
fff5
0009
0012
fff9
ffdf
0000
ffea
0005
001b
001a
fffe
fff3
ffe7
ffe9
fff1
ffef
0005
001c
0000
0000
fffb
001a
ffd5
0002
0009
fff3
ffd2
ffe5
000b
fff9
0017
fff7
ffe0
fff7
ffe2
ffe9
002c
000a
000a
fff5
ffde
ffea
ffe8
fffc
000c
0015
0015
fff1
fff5
0000
0015
0019
0008
0002
0007
0021
0011
000b
0003
000b
0000
000e
0004
ffee
fffc
001c
fff7
002c
fff0
0002
0006
fff9
0015
fff6
fffb
fff0
ffe8
fffb
ffee
0000
fff3
ffe2
ffe0
ffde
fff4
fffd
ffff
fff5
ffc0
ffd0
0009
fff6
000b
ffe2
0000
fff2
0002
fff2
ffe5
0001
ffef
ffff
fffa
0008
0026
fffb
000f
000a
0002
ffff
0005
0003
0008
fff8
ffec
ffed
0020
0021
0017
003a
002f
0008
0013
0010
0013
0010
0019
001e
0030
0021
ffeb
0003
0033
ffee
fff9
0007
fffb
0011
0009
fff4
ffeb
fff6
fffc
ffd8
0000
ffec
fff1
ffd6
0000
ffea
fffe
001e
001e
001e
000d
0011
001f
0004
0014
000c
fffd
ffe4
ffee
fff3
fff8
0013
0011
fff9
ffe7
0008
fff6
ffd2
001c
fff7
ffea
0002
fff7
0014
ffce
0008
fffa
fff5
0002
ffee
0021
001a
0005
000b
fff9
0000
000f
fffa
0006
0004
0024
0013
000f
0008
0023
ffdd
0001
fff9
fffe
001b
0027
fff5
000d
fffa
0020
fffd
000a
fff4
fff3
fff1
ffe9
0028
0004
fffe
001a
fffc
fffa
001e
0016
0019
0009
001f
fff6
0008
fff8
fffc
001e
0026
0004
000e
fff9
0007
0001
fff6
000a
fff5
fffd
0000
0003
ffd5
ffed
0008
ffd5
0000
ffe3
ffe9
000e
0014
000c
0006
0003
fffd
ffef
ffe6
0001
fffc
fff4
0005
0007
001a
0002
ffee
0014
ffe2
000c
fff8
fff2
ffdd
fff4
001c
001c
ffeb
0000
ffeb
0011
0008
fff9
fff2
0001
fff1
0005
0008
fffb
0018
0013
000b
fffa
ffd2
ffff
ffe3
0009
fff3
fff2
ffea
0002
0011
000e
0004
0007
000a
ffee
0005
0008
ffeb
ffe7
fff3
000c
0003
0014
0002
0000
0008
0006
ffe8
ffe5
fff0
000d
fffc
fffd
0007
000f
000d
ffe6
0006
0000
000e
ffef
fff7
fffc
ffda
000b
001b
0008
0003
0013
ffe7
fffd
fffe
001d
fff5
fff0
fff5
fffc
0014
0015
fffc
001d
0003
000b
0013
0003
0011
fffe
fff9
0005
fffc
000b
000b
001e
000d
0000
0018
fffd
ffee
000f
fffc
fffd
001a
0029
0016
ffe4
fff6
000a
0026
ffe6
fffc
ffff
0005
fff1
000e
ffff
ffd5
fff2
ffe8
0000
ffeb
0001
ffcd
ffcb
ffed
fff1
0001
0008
000d
fffd
0021
001f
fffd
0000
fffe
0002
fff8
0003
0022
0000
ffe9
fff1
000c
001a
0003
000a
0017
fff4
0014
fffa
0006
000a
0016
0006
0013
000b
0017
0030
0016
ffe9
fffd
fff0
0007
000a
fffc
ffee
fff1
0002
ffdb
0011
fff8
0009
ffe2
fffe
ffff
fff2
ffe2
0007
fffa
ffe6
fff5
0008
0011
0002
0005
ffd3
ffcf
ffd5
0007
0003
fff4
ffed
ffe7
ffdc
ffdd
ffea
ffd8
ffd9
fff1
ffd6
fffc
000b
0003
0002
0006
ffd6
ffe0
000a
fff0
0001
001b
000b
fff4
fff5
fffc
ffe2
0016
ffeb
0001
0000
0000
ffed
ffff
0002
0004
000a
001e
fff9
000c
0010
0015
0017
0006
000a
0005
fffd
fffd
0006
fff8
0007
ffff
0018
001d
0012
0019
ffe8
0007
0012
0008
0010
fff6
fff9
0014
fff0
ffe8
000f
0025
ffd0
0001
0017
0008
0001
0030
0016
fff7
000f
ffde
0006
0009
fff8
000f
0003
ffea
fff5
fffe
0013
002c
fff4
0000
ffdf
fff4
0014
fff4
0010
000d
0002
0006
fff8
fff7
0002
0011
0003
ffff
000d
ffd6
fff9
000f
000f
0003
0010
0011
ffe6
ffec
0017
000f
0003
fff4
fff6
fff1
001d
0001
000e
0001
000e
fff7
ffdc
fff4
ffff
0000
0004
0000
0006
fffb
fff9
001e
0007
0008
0014
000f
fff3
0002
000c
0004
fff0
fffc
0000
0004
0005
000f
fffd
fff7
0016
000c
001d
0009
0007
0017
000e
0009
0000
0006
0001
0011
fff9
0008
ffea
fff0
fffd
0008
ffe9
0025
ffe3
0005
ffef
0008
ffd4
ffea
fff3
ffe5
fff0
0007
fffc
0016
fff3
0027
0019
fff6
000b
0013
0004
000a
ffea
fffa
0000
000c
0003
0015
0008
0019
ffed
fff2
fff5
000c
fffc
0021
fff9
0003
0007
fffa
0019
000e
fffc
0005
0013
000c
ffee
0011
ffeb
0010
0024
0007
0021
0006
fff8
0006
000f
001d
fff8
0006
0007
ffe9
0010
fffb
000b
0031
0010
ffea
000f
0008
0001
0000
0000
0007
fff7
fff7
0002
fff2
fff0
fffd
0021
0005
fffa
fff6
fff5
ffe1
0015
0034
000f
fffe
0007
fff1
ffec
000b
fff2
fff5
fff1
0007
ffe8
ffbd
fff3
fff3
0004
fff5
0017
0016
fffc
0017
0002
0007
fffe
0000
001b
000a
000e
0008
0014
fffa
001d
0008
fff1
0001
ffee
0009
0006
000d
000b
000f
0019
ffdb
000c
001d
0026
0000
0010
0010
fff1
fff7
0001
fffb
0015
0000
001e
fff3
fff1
fff9
fff9
000f
0007
0027
fffd
ffec
ffe1
fff2
fff7
0002
0026
0009
0003
ffeb
0006
000f
0011
001c
fffc
0021
000b
000a
fffc
fffb
0006
ffff
0006
fff6
0008
0019
fffc
0004
0011
fff5
0016
ffe9
fffa
0006
001f
000b
000e
fff7
ffe3
fff7
ffec
0017
0006
0015
ffeb
ffe7
fffe
0001
000a
fff4
0010
fff4
000d
0022
000c
fffe
001f
fff4
ffe8
0012
fff5
001b
0007
0004
0013
000b
000b
fffc
0004
0010
fff5
0014
0016
0020
0016
000a
0000
0002
000d
0003
fffe
fffe
fff5
0018
000a
0007
0010
0004
0018
fff1
002a
fff5
fff3
fff1
fffa
fffa
0008
0014
0014
0010
ffcc
ffef
0003
0006
0002
0003
fffe
ffda
0023
0006
0016
ffea
ffe5
001a
fffc
fffa
fffb
ffe9
ffe2
0006
0010
ffff
000c
ffe8
001f
0023
000c
0006
ffff
ffe7
ffff
0019
0012
0012
0000
0015
0018
ffe3
ffeb
fffd
0007
0007
0005
ffd2
ffff
fff9
0011
0017
fffd
fff0
0001
0030
003b
0001
0015
ffff
fffc
0010
0000
0024
0018
0001
0010
fff8
0005
0002
0015
001b
0000
0007
ffe0
fff5
0000
0004
fff6
000e
002e
fff4
000e
0017
0024
0024
fff9
fff2
001c
000b
001b
0010
fffa
ffe4
fff0
fffa
fffe
0002
0000
fff7
ffe6
0012
ffca
ffec
ffef
0003
0015
fffd
ffcc
fffc
fff8
000f
002e
0016
003a
fffc
000e
fffb
0020
fffc
ffc3
ffe9
ffff
0005
fffe
0000
fff4
ffd9
0001
fff1
ffe2
ffe2
ffe3
ffd3
ffe5
ffed
0000
ffeb
000f
ffe9
ffcc
fff4
fffd
0023
0015
fffc
ffeb
ffec
000c
0010
fff4
0004
000c
fffb
000a
000e
0002
0009
fffe
0007
0002
ffff
0019
0004
0027
0027
0004
000d
000f
fffb
002c
0021
ffdb
0016
0023
fff3
000a
001e
004a
ffee
fffd
0004
0009
0020
fff3
ffe4
ffd6
fff9
0015
0014
fff9
ffed
fff6
ffea
ffff
000a
001d
0004
fffc
fff3
0000
ffff
0001
000b
fff9
001a
0001
fff7
0014
0019
001e
fff1
0052
001c
fffa
fffa
0002
0004
002a
002b
000b
ffff
0008
000d
ffd9
ffe7
0000
ffee
000e
001a
ffe8
ffe7
0000
ffed
ffc5
ffeb
fffb
0007
fff0
fff2
0002
fff5
001f
ffff
0002
0003
ffdb
0015
000c
fffe
001c
0005
000d
fff1
000a
000f
000b
0005
0000
0004
000f
fff5
0005
000d
001c
fffd
0000
0000
0004
000d
fff4
0014
0009
ffe6
0000
fffb
fffb
0005
000c
000d
0002
0002
0020
ffef
ffed
fffb
000b
0000
0014
fff6
fff2
0000
ffe9
fff1
000f
0014
000e
fff7
0016
ffec
0006
0001
fffd
fffa
0001
0007
0007
fffa
0010
ffff
000a
fff8
000c
0007
fffd
0005
0000
0011
ffff
0000
fff7
fff6
fff1
ffd7
ffff
ffe9
fffa
fff2
ffea
0002
ffed
000f
001a
0010
000a
fff9
ffed
ffee
0013
0004
fff9
000b
fff9
0004
fff4
0014
0013
fff5
ffff
0007
0008
0001
fff5
000c
0014
0000
fff1
0007
fffa
0009
ffff
ffe0
ffef
fff8
0012
000c
fff2
fffc
0016
0007
000b
0012
001e
002c
0013
0020
0003
0001
ffe7
000c
0016
0004
fff4
fff4
000e
fff9
ffde
0008
0007
fff1
fff3
001f
0018
fff5
000c
ffff
0010
0004
0033
fff5
ffea
fffa
ffe0
000e
fff6
0007
0015
0003
0000
000b
ffe4
000b
001a
0055
0051
0015
000c
fff3
fffc
000c
0044
0013
0016
fffc
ffeb
ffe0
fff6
000f
0013
ffff
ffe3
fffb
001e
ffde
ffe9
fffa
0014
fffd
000b
ffdc
ffff
ffeb
0027
0017
0003
ffff
ffc6
000f
0005
0020
0027
000b
0015
0015
ffef
fff2
fff1
0015
fff7
0001
fff7
000a
001b
ffe7
ffee
fff2
fffd
0006
0018
fffd
ffee
0002
ffe7
000b
0002
0007
000d
001a
0020
fff2
0006
fff2
000b
fff4
0006
0011
ffff
ffe1
0002
0002
ffe0
fff9
0006
0001
fffc
fff0
001b
0001
0004
001a
0016
fffe
fff6
ffe3
ffe7
ffe5
fffd
fffd
0008
ffec
001d
fffc
0003
000f
0015
000d
000e
0021
000f
0006
001e
fffd
000d
fffa
0009
0026
0000
0003
ffff
fffb
0004
0004
fff3
0006
fff1
0017
ffed
ffe2
fff0
001f
0004
ffea
0003
fffe
fffb
ffed
0014
000a
0009
0000
0011
0009
002a
002d
0003
000f
0004
fff1
002c
0010
0011
0013
0020
0021
001f
000e
ffe7
ffe7
002a
004d
003b
002a
ffec
ffd8
ffd0
fff7
ffff
fff1
0012
0006
002c
0015
fff5
fffa
ffed
001a
0022
0032
0009
0005
ffff
ffd9
000e
001a
0006
0017
0039
001b
001c
001c
0010
fff5
0025
0000
ffce
0001
0016
0009
fff9
0014
0056
0079
0065
0028
fff1
ffc0
ffd4
0003
001d
0021
0016
ffed
ffca
ffed
0023
0001
0000
fffc
0015
0008
002a
0026
0005
ffe4
ffe7
fff3
0020
0020
ffeb
0013
ffff
fff1
fffd
fffb
0010
fff6
0013
0007
0003
fff2
ffca
ffc9
ffca
0025
000f
0005
fff5
0018
ffdc
ffc8
ffc4
fff2
0043
0016
0003
000a
ffef
fffe
fffb
002d
0001
0021
fff6
001d
0006
0010
001b
0008
001a
0013
0007
0000
fffc
ffde
ffe4
ffff
ffef
ffff
ffe0
ffef
0001
fff4
fff8
fff2
0003
0018
ffea
000e
0031
0001
0004
001e
003b
002a
0014
0000
0005
ffee
000c
0027
0006
ffff
0028
0007
0018
0007
fff9
fff6
fff2
000d
ffe7
0005
0001
0006
0018
0027
fff8
0009
ffee
000c
0024
0019
0000
000a
fff4
000d
0003
0016
ffe3
ffe2
000a
0021
0016
0010
0022
ffe4
0012
fff8
0009
0014
000d
0003
0009
ffda
fff4
0002
0019
0005
ffeb
ffde
0007
001c
fff0
001b
0001
ffee
fff4
ffdb
fff3
001e
002a
001a
0011
0017
0007
0003
0036
002c
000c
fffa
fffc
002d
0015
fff6
fffe
0044
fffc
ffff
001d
fff3
000d
0053
009a
0049
000e
002c
0010
0017
fff7
0009
0007
fff7
fffc
002a
0022
0005
ffe5
ffc7
fff0
ffd1
ffd5
002c
0041
0000
ffee
ffe7
fff1
000e
001a
0016
fff0
0013
0000
0021
001c
0011
0003
ffd1
0009
0008
0009
ffeb
fffe
fff1
000b
fffc
fff3
000f
fffe
fff5
002c
0021
0032
fffe
0021
002d
fffa
fffa
fff9
fffa
0009
0012
000f
fff3
fff1
000b
fffa
0003
0012
0000
0021
001b
fffc
000d
0015
fffa
000d
fff0
000a
0004
0004
fff0
fff9
ffd4
fff9
0003
fff5
0013
0009
ffed
ffe8
0005
fffb
0012
0000
fff5
ffe7
fffa
000f
fff8
0008
0010
0000
0005
fff4
0008
ffef
0005
0007
002c
0009
fff4
0007
fffd
0008
ffec
000b
0001
001a
001a
0001
0006
002b
fff3
0001
001f
ffee
0003
000f
0008
0018
0007
fff6
fff9
0004
000d
001e
fffe
0002
ffe7
0009
ffe6
0014
0000
fffa
0012
0007
0008
fffd
0003
0012
0002
0014
ffec
0012
0012
000a
fff0
0000
fff6
0002
fff8
0001
fff1
000d
0020
0000
0027
fff9
002a
000e
0009
ffe9
ffeb
000f
fffe
fff7
0011
fff1
fff2
000d
ffeb
fff5
ffe7
ffeb
0012
fff9
fff6
fff1
000a
fff8
ffff
fffa
fff8
0017
0015
000a
0027
0026
002a
0003
001b
0015
0008
fffd
fff3
0008
0026
000b
ffee
fff4
ffff
0003
0005
0022
000a
fffa
0006
fff8
000b
ffe6
000e
fffb
0031
fffb
ffd9
0016
fffb
ffcd
ffe3
fff6
0000
ffe9
ffdc
ffd6
fff1
ffef
0000
0004
0005
ffe9
ffdc
001a
000c
000e
fffe
001b
0005
002e
0025
0003
0009
ffee
000c
0009
0033
001a
fff7
0007
0006
fff7
0001
0017
001e
0017
0015
0002
0021
001c
0005
fff3
0015
fff7
0009
0013
0000
ffe6
ffe8
fff7
ffeb
fff3
ffe8
0000
ffd0
fff9
0006
ffe4
ffe1
0005
0015
0004
0000
fffd
0001
fff8
001f
0013
0007
001c
fff5
ffec
fffc
ffe6
0006
ffff
0022
000a
ffe9
0002
0006
0010
0001
0003
0001
ffde
0004
000f
000c
fff0
fff2
fff5
0009
0004
fffe
001b
ffff
ffea
fffb
fff4
ffea
fff1
000c
fff2
fffc
0004
fff7
0006
0000
0008
fff4
000d
fffc
fff5
0012
000b
0015
000f
000e
001d
000c
0005
ffeb
ffe5
ffe8
ffee
001a
0014
001e
fffa
fff7
fff0
ffff
000a
0017
0009
000a
0002
fff9
fff9
001b
0016
000f
fff7
000f
fffc
0002
0001
fff1
0012
ffef
0000
ffff
0003
ffd8
fff8
fff9
0000
0021
fffb
fff0
0000
0004
fffa
0009
0006
000d
0006
000f
ffe6
0006
001e
000c
fffe
fffb
0003
0000
0001
fff4
ffff
0006
0023
0041
0013
fffd
0008
ffff
0011
000e
0016
fff0
ffd8
fff4
fff4
fff8
fffa
ffd5
ffe6
fffd
fffc
fffb
fff3
fff4
fff5
fff4
0009
001c
fffe
ffed
ffe9
fff2
0033
000e
ffe2
fffd
0019
0002
000b
001c
0000
001a
0001
0008
0010
0017
fffd
0019
0000
0016
0004
000d
fffb
000f
0012
000f
0012
000f
fff7
0006
0011
0005
0018
001b
0006
000e
0006
fff4
fff6
fffd
0003
0015
fff6
0000
ffe5
fff7
0006
0029
0010
0003
001d
ffef
000f
0001
ffff
0022
0000
0007
ffe5
0000
001b
000b
0006
0022
fff3
0002
0019
0022
0027
ffee
0013
ffee
ffff
000e
0028
0022
000c
ffec
ffff
fff6
000a
0032
ffdc
000f
0008
0005
ffd8
0007
001c
000f
0006
0005
fff9
fffb
0040
0068
003f
0012
0009
000f
0009
003f
008f
0069
0022
ffe6
0039
0001
ffe7
ffdb
fff3
0009
001b
0015
fff8
0006
fffc
fff0
fffb
fff9
0024
fff4
001a
0012
0006
ffe8
0000
0038
001a
001c
001a
000d
0002
fffe
0014
ffeb
fff7
000a
0007
ffec
fff3
ffdf
fffa
fff3
0012
ffe8
ffe2
ffe4
0007
ffeb
0004
fffc
fff7
0012
0009
000d
001b
0013
fffb
fffa
fff2
fff5
ffd2
000b
fff2
0005
fff8
0005
0011
0001
ffd4
ffc3
0000
0013
0000
0012
0013
ffd6
ffc4
ffd6
0008
0019
0023
0015
002d
0045
001b
ffdd
0001
fff8
fff2
001c
0042
0000
ffde
000a
fff6
0029
fffb
002a
fff4
fffa
0000
0022
0025
0010
0007
0012
fffa
fff3
fffc
0016
0013
000d
0012
fff4
000e
0007
fff3
fffe
001e
0004
fff7
000b
ffef
0021
ffe6
001a
0014
0001
000d
fff7
0011
000b
fffb
0014
fff0
0013
0008
fff2
0014
ffea
0004
fffa
ffff
0000
0004
fffd
fff3
0007
0016
000c
fffb
000e
000c
ffd4
ffb6
ffd4
ffd3
fffd
001b
0001
000d
ffda
fff7
000c
000b
fffc
0005
000f
fff2
fffe
0010
0026
0007
000d
0023
000a
000c
0009
0014
ffe8
0008
001a
0004
000d
0000
ffee
0001
0002
0020
fff8
002d
fff4
0003
0012
0028
000d
fff3
ffff
fffa
fffd
000e
0009
fffb
fffe
0005
0008
001d
fff9
ffff
001e
000d
000a
ffec
fff6
fff4
ffe8
000f
000b
0013
ffe9
ffdb
000d
fffa
001b
0010
0014
000b
0017
0011
ffff
ffed
fffb
002c
0017
0007
ffeb
ffe2
ffe9
ffec
002e
000d
0004
fffc
ffef
0004
000b
0016
0018
0000
0003
fffd
001a
0005
fff6
fff3
ffdf
ffdd
001f
0002
ffec
ffeb
0009
0009
001a
ffb7
ffd8
0007
000c
001d
001e
0011
ffe0
0014
0005
ffed
0006
fff8
fffe
004a
0005
0006
fffd
fff7
fffa
000d
0016
0008
fff5
fff2
0003
ffe1
000d
fffe
000c
fffb
0009
fffa
0008
0014
0004
0001
000d
fff8
001c
fff3
0005
0014
001b
0008
fff1
0007
0006
000a
ffec
ffd3
ffe8
fff4
0009
0007
0027
ffed
ffd3
fff7
ffea
0017
0005
001f
001f
0032
0039
fff8
ffdf
fff9
0016
0029
0015
000c
0000
fff6
ffd2
0002
001a
0002
fffc
005e
0023
fffb
0028
0002
000c
fffe
0000
001f
0008
fff7
0002
ffff
fff3
0003
0023
0007
000b
0019
fff9
0002
0002
fffb
0008
fffb
0010
0015
000e
fff4
ffd7
ffe2
fff3
ffe2
fff7
ffeb
0001
ffd6
fffb
001e
ffeb
ffeb
001e
0006
fff7
fff5
000b
ffe9
0020
001c
001d
0021
001e
000c
0004
ffe6
0008
0003
fff1
0006
fff6
0008
0003
ffec
ffe8
0011
003e
0037
000b
ffda
ffdd
fff8
000c
0014
004a
0005
ffef
fff5
0000
ffe9
000a
ffe2
0003
0022
001c
002e
000e
0015
ffe5
0007
0002
fff6
0020
000e
ffbe
ffc1
ffe4
fff5
ffdc
0001
0004
0024
0010
0013
0002
0000
0000
0010
001a
fff8
ffd9
ffdc
0004
0012
0011
000a
fffe
ffef
ffff
0020
0004
0017
0019
ffef
0010
0020
fffa
0009
0004
ffe5
fffb
fffe
fffe
ffeb
ffd4
fff0
0007
000d
ffec
0012
ffe9
ffe0
fff6
0006
0002
fff4
fffe
fff8
fffc
000e
0014
001d
fffa
ffef
ffeb
0001
001c
0007
0001
fff3
0001
0005
fffb
0001
0024
001f
000c
0007
fff3
0024
0011
0014
0010
fffe
fffd
0005
0010
fff8
fffa
fff7
fff2
0008
0018
fffb
000a
fff0
0009
ffe5
0000
0005
fff3
ffe1
ffec
0000
001b
000d
fff4
ffe3
ffe8
fff9
0034
000b
fffd
0008
0009
0000
001e
0011
0000
fff6
0021
001f
0003
0008
002e
0011
0022
0028
0020
ffec
001e
000d
0009
001d
001b
0014
fff5
0005
fff0
ffd1
fffa
0001
ffff
000a
fffc
ffea
0000
fff2
fffa
001e
0004
0016
ffeb
ffff
fffc
0025
0025
0024
0036
0008
0014
fffc
000e
fff5
fff5
ffee
ffdd
fffe
0003
000e
0013
001b
000e
0001
0000
fffd
fff5
000e
fffe
0023
003e
0000
ffff
0007
fffe
fff3
fffc
fff1
ffe3
ffed
0008
0002
0000
0008
fffe
fff8
0009
0006
0000
fffa
ffaa
ffdb
000b
0018
0001
001e
ffe2
ffde
000f
fff2
fffd
ffe8
0011
000d
000f
ffd8
ffe2
0010
0004
fffb
0004
0013
0002
0004
000e
0002
0012
fff7
fff9
0004
0021
fff5
0000
0010
fff3
ffec
0001
fff8
ffed
0005
ffd2
fffc
0007
fffb
ffdd
fff3
fff8
0003
ffe2
0009
0010
0006
0000
001c
000a
001c
0013
fff6
0009
0009
0013
0021
0016
0009
001d
000c
ffa8
ffea
004e
0045
0037
0008
ffc6
ffe2
ffdd
000b
0030
002a
0014
0003
fff7
ffff
0013
000a
fffe
ffee
0023
001c
0000
0007
0002
fff1
ffea
fff1
fffb
ffe5
fff5
fff9
ffde
fff8
fff2
fff2
ffe5
0000
0003
0013
000a
fff7
0001
ffef
000c
ffe9
0027
0017
001d
fffd
0009
002c
0001
fff8
0016
001a
0012
002a
001c
fffc
ffe6
ffb6
fffc
fff3
0016
0017
000e
0000
ffd9
ffe1
ffe8
ffd2
000f
000b
000d
001f
fff8
ffec
ffeb
0002
0032
0010
001c
000c
0009
0026
0022
0023
0036
fffe
0006
fff2
fffb
0015
0021
000b
0003
ffe8
fff7
fff4
000a
0017
0033
0013
0021
0002
0014
0000
fffb
0009
0022
0000
fff3
000b
0005
ffe1
fff4
ffc9
0003
0003
ffee
fff8
ffe7
0013
000c
fffd
0004
ffeb
0013
0002
000a
0002
000f
0023
0006
0011
0028
0012
0021
000c
0000
ffe9
fff5
0003
fff1
0012
0004
0018
fffe
0025
000c
fffe
0010
fff5
0006
0000
001c
0016
0014
0027
ffef
fff9
001a
001a
0004
fff3
0006
ffeb
0003
0010
0027
fff6
0000
ffe9
ffe6
ffef
000d
0008
000a
fff2
ffea
0007
0014
ffe7
0002
0000
ffd8
0021
000f
0023
0019
ffea
ffec
0006
0005
0023
000a
001b
0008
ffe0
fff7
ffed
fffa
0029
002c
fff8
0008
fff2
0024
fff5
001a
0016
0004
0017
001a
0002
ffea
ffe9
ffef
0004
001c
fffa
fff0
fff4
ffef
ffde
0008
0018
0000
0000
0007
0025
000a
000a
002d
0026
0003
fffa
fffc
0005
0040
005c
0041
0038
000d
ffb4
001e
002d
0017
003d
0000
ffe7
ffd1
0008
0002
0019
001c
0004
ffe3
ffe4
000e
fff7
0005
fff6
fff6
0018
001a
ffea
0009
ffe7
fffb
fff4
0004
0013
ffe9
0005
fffb
0011
0015
ffed
fffd
0002
ffea
0016
0002
0002
fffd
0008
0011
0021
0003
0029
0006
0003
0020
0012
0016
fff5
000c
000b
0024
0023
0021
0020
fff5
fff3
ffff
0007
fff9
003d
0013
001b
fff5
0011
fff1
ffe6
fff2
0016
0026
0003
0006
ffef
ffd1
0000
0010
0022
fff6
000d
fff4
fffd
fffe
0011
0016
fffb
fff6
000d
0003
ffee
0008
ffee
001b
ffff
fffb
000a
0017
000c
0000
ffdf
0003
fffb
0014
0020
0010
fffc
0008
fffe
fff3
000b
0004
0011
001d
0002
000a
fffb
0003
ffdc
0005
0016
0003
ffe1
ffef
fffb
fff3
0001
000e
fff3
0013
ffd6
fff8
0008
ffee
000a
000a
000e
fff7
0007
0000
fff2
fffd
fffe
000e
fff5
fffd
fff0
0008
ffeb
0000
000f
0018
000e
0017
000d
fffa
ffe6
fff6
fffd
fff6
0002
0011
000f
fff2
ffe4
fff1
fffb
fff8
0014
000b
fff6
ffef
0000
ffe4
fffd
0019
000a
0002
fff8
ffee
fff5
fff9
0020
001a
0022
0012
0014
002e
fff8
ffec
ffda
ffd6
0007
000d
0020
0016
ffe8
fff4
ffdf
ffd6
ffeb
000c
0018
fffa
0007
fff3
000b
fffb
0016
0025
fffd
000a
fff5
fff0
001b
002c
0003
ffde
000a
0016
0012
0009
0000
0002
ffe2
ffe6
000a
ffee
0012
ffe7
fff9
0056
0026
0040
0014
0001
fffc
0012
0017
002b
0010
000e
0004
ffef
000f
001a
002c
0006
0012
0019
0002
fff8
0016
000b
ffbc
ffbd
ffff
0001
0020
0008
ffff
fff2
ffef
fff0
ffdc
fffa
0023
0003
0010
0022
0000
ffe7
0009
002a
003a
0025
000f
fff6
000a
000b
0015
0046
002b
ffde
0003
0007
001d
0000
001d
001a
000a
0007
ffb8
ffd7
0016
0026
0043
0030
0003
fff8
ffdb
0009
0011
0037
0034
ffe0
ffdc
0000
0023
0003
0006
0000
0007
001a
001e
0014
0016
ffeb
ffed
0001
0009
0002
ffe4
ffea
ffee
fffd
0005
0006
0013
0006
fff4
fffb
0023
0010
0005
002a
0015
0034
0003
fff7
000f
000d
0006
000f
0029
0014
fffa
0000
fffd
0006
000b
fff1
ffbf
ffbc
fff1
0007
0009
000c
ffdd
ffdb
fff1
ffe5
ffff
ffeb
001f
000c
002d
000e
ffe1
fff3
000d
0020
0035
fff6
ffcc
ffe0
0009
0022
0051
0016
0018
000b
0009
0001
000d
000a
006a
0008
fffe
0009
001b
0004
ffe3
0025
001e
0011
000e
001f
000f
fffe
ffe0
fffa
004a
fffd
000d
fff9
0015
0021
0028
0023
fffb
fff2
0025
0014
002f
ffef
ffcd
ffe8
fff7
0021
fffd
fff0
ffcf
fff3
fff6
001f
0002
000a
0007
000c
0002
fff7
fffc
fffc
ffe3
fff1
ffe9
001c
fffc
000f
001e
0000
0000
fff6
000f
fff3
002a
000a
0007
0007
fffa
0007
ffff
fffc
0007
000b
0018
0002
fff2
fffc
fffe
ffe1
0008
fff8
fff9
0003
ffe1
fffa
0006
fffc
fff5
fff8
0008
0006
0000
0003
0015
0003
fffe
0023
0011
fff6
ffe1
ffd0
0032
0048
002f
fffc
fff2
0024
fff8
001c
002b
0013
fff4
ffe6
ffee
fff9
fff9
002f
0029
0006
0007
0012
001f
fff8
fff9
fff6
0011
fffa
0011
0006
0012
0000
ffee
ffe6
0001
ffed
0001
ffeb
fffb
ffeb
ffe5
000c
fffc
0006
fffd
fff9
0004
000e
0003
fffd
0003
fff8
fff7
fff3
000f
000d
0011
0000
0008
000f
0008
0021
0013
fffb
0015
0000
001a
000b
fff6
0006
0007
ffee
fffe
0039
ffff
fff6
0000
ffec
0004
0000
0023
fff9
ffef
000c
0004
0013
ffff
ffe5
fff2
001e
000c
0025
0017
000f
fffd
0007
fff8
fffc
ffd9
ffca
fff6
fff9
fff2
000b
0005
fff5
fff7
000f
0034
0004
001f
0001
0002
0003
0014
0024
0008
002e
ffce
ffe4
ffef
fff5
fffd
fff4
0017
fff6
0005
fff0
0002
fffc
fff4
ffff
0010
fff1
0003
000a
0011
fff8
0001
000e
0001
001c
000f
fffa
0006
fff4
fff7
0001
0016
fffc
0003
ffe4
0019
fff6
0016
0002
ffee
000a
000d
ffee
0008
0003
ffdf
0000
000d
ffe5
fff7
000d
fffd
fffa
000b
0010
ffee
0001
0014
0009
0003
ffe5
0011
0004
0006
000d
fff5
fff9
001c
0018
fffe
0000
fff0
fffa
0002
0010
fff9
ffe8
fff5
fff4
0019
0006
fff5
000f
fff6
001b
0001
0002
0011
0020
0006
fffa
fff7
001e
0002
ffe8
fff2
0005
ffef
0013
fff5
0000
002b
0005
0016
ffe7
fff9
0005
0006
0026
001c
0013
fffc
0024
fff9
0007
fffb
fffd
ffe7
fff2
000c
0005
001c
0000
0002
fff8
fffe
0012
000a
ffe5
fffe
fffd
0014
000e
0000
ffeb
ffdd
fff5
ffd9
ffe4
ffed
ffe8
0006
fff1
ffe8
0005
0024
0005
ffe4
0028
0006
0005
ffd9
000f
001e
ffee
0033
0006
fff5
0003
0011
ffd6
0008
0025
0023
0003
fff0
ffe4
fffb
fff5
ffe5
fffa
0001
0019
0022
0009
fff6
ffdc
ffd5
ffc5
ffa4
ffdc
fffb
ffed
ffe8
ff9b
ff8d
ffd2
ffd6
ffe1
ffea
0006
fff8
0005
0006
fffe
0006
0000
0029
002c
0026
fff7
0012
000e
0000
0036
0012
0002
fffd
0007
ffe0
ffef
0015
0002
0007
0013
0010
ffe7
ffe9
fffa
0005
fffd
000a
fffa
0015
fffb
fff2
fff4
0021
ffdf
ffce
ffe2
0013
0005
0041
001a
0006
0006
fff7
ffe8
000f
ffec
0010
000a
ffd3
0003
fff7
ffff
000a
001d
ffe9
0000
001d
fffa
fff2
0018
fffd
fff5
0019
000e
000b
fff3
fff0
fff5
fffa
000a
fffa
fffe
fff8
000d
fffb
0003
000c
ffea
0007
fffd
fff4
fff4
ffe1
ffe3
0000
fff5
0008
fff9
fff2
fffa
0006
0053
ffd3
ffe0
0001
fff0
0031
0000
0000
fff4
fff5
ffef
fff0
000c
0019
0027
0006
ffed
0021
000f
0003
0029
0036
ffee
0000
0006
fffc
0017
0015
ffee
0016
0000
0004
0005
ffe4
0006
ffed
fff2
000a
000c
fff3
001f
fff4
0004
0001
0016
0037
0006
0002
0020
fffb
0008
0053
005c
004c
ffea
fffc
ffde
0002
000f
0013
ffff
fff0
000f
fffa
fff6
fff3
0009
0014
fff6
000d
ffef
fffc
fff0
ffee
0000
0000
0012
001b
0008
fff6
ffe9
000f
ffff
0008
ffea
001f
0005
ffe8
0001
0019
000d
fff2
0007
0020
0039
fff5
0009
ffb9
ffde
002a
ffd8
000f
ffe5
ffe2
ffd7
ffd8
001e
fff8
fffb
0002
fffe
fffa
0001
0010
fff0
fff8
0012
0000
0004
ffe1
fffe
ffe2
fffd
fff7
0032
0000
0007
fffb
0009
fffd
ffe1
0000
001e
000c
001f
0009
0006
0012
0000
fff7
fff6
0007
ffef
fff4
0001
fff6
0011
0004
ffef
0003
0014
fffd
fff8
fff2
0008
0001
0000
0021
ffee
0004
0007
ffef
0008
000c
000a
fffc
ffe9
001a
0006
fffa
0002
0007
ffeb
ffff
0006
000f
fff4
0027
001e
fffe
0015
fffb
0005
0011
0006
fffd
fff0
000b
0001
0000
000e
0010
000f
fff6
fffb
0021
0013
ffff
fff0
0006
fff8
ffff
ffec
0002
fff8
0007
fffc
ffff
0003
fffc
ffff
fffe
ffe9
0013
ffec
000a
0018
0006
0003
fffa
000c
fffd
ffee
002c
000b
0000
000e
fff8
0009
0007
ffff
0001
ffff
ffe4
000f
fff4
0004
fffc
0006
0008
fff4
fffc
fffc
0000
0026
0012
0011
000c
0000
fff0
0004
fffb
ffee
ffe9
0006
fffb
ffe6
0000
fffa
fff0
0012
fffe
ffef
ffe2
fff9
0010
fffe
000b
0012
0004
fffb
fff6
000f
fff8
0010
0001
0008
001b
0022
001d
0006
0000
0005
000e
fff9
0000
0001
fffd
0010
000a
0005
fff6
fffa
0012
0009
fff9
ffe2
fff8
ffe7
fffd
0001
fffb
fffc
0008
0015
000e
0000
000d
fff4
ffe6
0006
fff6
fff9
0003
ffee
000f
fff4
ffff
fffe
fffc
000a
ffed
ffef
fff0
0002
0018
0012
0012
0009
0019
000a
0000
0006
fff2
ffef
0004
0000
fff5
0000
0002
ffed
ffeb
0007
0007
ffeb
0013
0006
0010
0015
0012
0011
ffee
ffe9
ffef
0004
001e
0000
0020
fffb
fff4
fff5
000f
0012
000e
0018
ffe9
fffa
0006
0005
000e
0007
002e
0013
0001
0000
001a
fffe
001b
0016
ffff
fff7
fff1
0004
ffee
ffef
000a
0012
ffff
ffee
ffe5
ffed
0025
0001
fff1
fff3
ffeb
0003
000b
fffe
fff9
0000
ffed
ffff
fff4
fffb
fff6
0006
0015
ffe2
0002
0005
0009
ffff
fff7
0016
fff2
fffe
fff2
fff9
0004
ffda
0009
0009
0019
0013
0011
ffff
ffff
0001
001d
001f
0012
fffe
000c
fff4
0004
0005
0004
001f
fff4
0006
fff8
ffeb
0000
0005
ffef
0003
0000
000b
001a
ffee
ffe2
0009
000d
0019
000f
001d
fff1
000c
0018
000e
0012
fffd
0009
0003
0001
fff7
fff7
fffe
0003
0003
0000
fff3
fffc
000a
0005
0000
fff9
0005
0004
fffd
fff3
fff4
0008
fffd
0006
fffc
0000
0006
000b
ffff
ffed
ffe7
ffdc
ffe5
fffb
000b
ffe5
ffe7
fff7
0029
0007
001b
001a
001c
ffe5
0012
fffb
0026
0022
0030
ffe1
000f
0007
0000
0009
0013
000b
0017
0001
001e
000a
000d
ffff
000b
fffd
000c
0004
fff1
fff1
0008
fff1
fff1
0014
fff8
0020
000d
0027
fff3
fffa
000e
fff0
fff2
fff5
0006
fffc
fffa
000b
ffe4
ffee
ffdf
000c
000c
fff7
0003
ffe4
fff2
0000
0000
0006
0018
fffd
fff2
000c
0008
000d
fffc
0018
fff5
ffe0
0002
ffff
fff9
0008
0006
0000
ffe7
ffe6
ffce
000a
0000
fff8
fff0
ffd9
0015
001c
001d
002b
0012
fffb
ffe9
0017
0043
0000
fff8
ffdb
0001
ffd0
0020
0000
ffed
ffe8
0006
0006
0019
001a
000b
fff1
0010
0001
ffeb
fff5
fff0
0019
001a
fff5
000c
ffff
0014
fff9
000a
000f
ffe5
0017
fffc
fffa
000c
0009
fff4
fff8
fff8
0002
000d
0008
0007
0004
0004
fff3
0003
0016
fff7
000a
000d
ffd3
ffef
fffd
fff9
000d
fffe
0010
000d
0026
0006
ffe8
fff9
0011
ffff
000f
fffb
0018
fff8
ffe8
ffeb
ffee
fff5
0000
000c
fffd
0001
fffc
0001
0004
000a
0008
000c
0018
0000
0003
fff6
fff2
ffdd
0008
fffc
0011
0006
fffc
0000
fff2
001c
0026
0008
0009
fff0
ffed
0038
0038
0029
001d
fff1
0017
0014
0012
0033
0018
fffb
000c
001f
fff6
0003
0018
0011
fff3
ffec
0001
fff3
ffec
fffd
0001
000a
0009
fff7
fff4
0010
fffd
0013
fff3
000b
0003
fff2
000e
fff3
0004
0014
0000
0007
fff6
0013
fffd
0008
fffb
fffa
000a
ffe0
001b
ffef
0006
fffd
002e
0012
000b
0015
0005
ffff
fffa
0000
0008
0006
0032
ffe3
ffec
ffd8
0012
0012
0005
0001
0002
ffec
ffeb
000f
000b
0012
fff0
0011
002c
0013
fff4
0003
fffe
0010
000d
0014
0008
0000
0013
0010
ffdc
0021
000a
0006
ffe2
fffa
fffb
ffe1
0024
0000
0003
0015
000b
000a
ffee
0000
000a
0009
0030
001b
0008
0009
0008
fffd
0000
ffff
0000
ffe8
0043
fff4
fff4
000a
ffe7
fff6
fff7
0003
ffed
ffd8
fffe
0004
fff6
0000
fff9
000f
0016
0023
0033
ffff
fff8
fff3
0000
fffa
002f
0016
ffeb
0003
fff4
fff7
ffff
0000
000e
0016
fffa
0004
000e
fffd
fff9
fffc
0001
0016
000c
000a
ffed
fff8
0022
ffff
ffe1
0006
0019
0012
ffee
0004
ffec
ffd9
000c
0002
001c
001d
fffd
000f
0008
001b
0018
0020
0005
ffef
000f
ffe4
0047
000b
000c
0007
fff0
fffd
ffeb
0049
000a
0014
002f
0009
0021
fff6
000b
000d
0025
002a
002d
fff3
fffe
0026
000b
ffff
fff7
000c
000b
fffb
fff6
0007
fffc
0000
0001
ffea
fff1
000d
000c
000a
fffd
001e
fff3
0001
0012
0003
0021
0002
fff8
0008
000d
ffff
001f
0026
0000
fff6
fff5
0006
002b
001d
000a
0011
ffff
0020
000b
0029
fffc
0006
001c
0038
0011
0008
0031
0001
ffcf
fff5
0005
fff7
fffc
fff1
ffe2
fff1
0000
fffe
001d
ffe9
fff7
fffb
0003
ffee
fff6
0008
0019
ffe6
fff9
000e
0003
001c
0010
fffe
ffde
0001
0001
0002
001f
0040
ffe0
fff0
ffda
ffdc
fffb
001f
001c
0001
fffc
ffea
fff4
0006
0002
0011
ffef
fff7
001a
0011
ffe9
0006
ffef
000e
0013
0003
0025
0036
0033
0022
fff1
ffdf
fff2
fff8
0008
0002
0001
0003
0008
0002
000f
ffee
fffe
ffee
fffa
fff8
0012
0017
ffff
fff8
fff5
0008
0001
000c
000f
000d
003d
fff8
0032
fff7
fff7
fff7
0018
0028
0015
0011
0022
0002
ffee
0006
ffea
0017
0001
ffef
ffdf
0000
fff1
ffda
ffe6
ffc8
fff4
ffdc
0004
ffdd
fffa
fffd
fffa
0010
000a
fff6
fffe
0002
0012
000e
001c
fffb
0000
fff8
ffeb
0017
fff2
ffdd
ffe9
0004
0000
0022
0028
0000
0014
fff8
fff2
ffec
fff9
0000
0011
0009
0012
ffd9
fff6
000b
0000
0000
fff6
000c
0006
0009
0014
0009
0000
fff3
fff9
fffc
fff6
0005
fffa
0005
0008
0004
000a
000f
0019
0007
0006
fffe
0003
ffec
0005
0005
000e
ffe7
000d
000e
0026
0006
001e
0007
0007
fff9
0010
ffe8
0005
0013
0028
0000
000b
0005
ffed
fff4
ffe4
ffed
fffa
0001
0005
0019
0015
fff3
fff3
fff4
0003
0005
ffed
0005
0000
0006
000b
ffed
fff3
fff3
fff9
0000
000d
001c
fff4
0003
fffb
ffff
002f
0008
fff9
fff9
fffa
ffed
000f
0011
0007
ffed
0007
ffe1
fffa
0006
000f
0006
000a
0004
fff3
0017
fff6
fff8
0003
fff5
000f
0011
0012
fff7
0006
fff6
0007
0002
ffea
0006
0015
0009
000c
0000
fffe
0000
fffe
ffe5
ffeb
0000
0001
ffeb
001c
ffff
fffd
ffdc
fff1
0001
ffe5
fffe
001e
001d
0017
0013
001c
fffd
fff1
0000
0015
fff8
000d
0015
0013
0005
0010
ffec
ffd8
000d
ffee
001f
0017
001b
0017
0016
000d
000d
fffc
fff4
fff5
ffe8
0004
0004
0000
0006
0007
fff9
ffe0
000d
0009
000c
0003
0008
0005
fffd
0014
0017
001b
ffff
ffd9
fffc
ffde
000d
fff5
ffed
0012
ffdd
fffd
fffc
0028
fff9
fffc
fff2
0006
ffeb
ffff
000e
fff0
0009
0005
001b
001d
0015
000d
0006
fffb
ffec
fff9
ffa8
ffb5
ffba
ffd5
0002
ffe1
004c
0020
fff8
ffd5
0003
001d
0030
0037
001b
ffee
fff4
0012
0014
0000
0031
001f
0016
0010
0007
000f
0001
0012
0012
0000
0024
0021
fffc
ffe4
000a
ffe8
ffd1
fff7
ffe8
fff9
fff0
ffec
fff5
0000
fff1
fffc
ffe0
ffe8
0000
fff7
fff9
0000
fffa
0001
000e
fff8
000f
000d
0013
0010
0004
0001
fff0
ffee
ffee
0024
0000
0000
fff0
ffeb
fff0
fffe
fffb
000a
0004
0006
ffed
fffa
fff8
fff9
0012
0009
fff6
fff9
ffde
0008
0015
fff8
001a
000a
ffeb
fffe
0002
ffff
0013
0016
fffd
0004
ffed
ffd4
0006
0003
0010
fff2
ffe1
0014
ffdd
fff1
fff7
0006
0004
fff4
0005
fffe
0014
0010
0036
ffe3
0011
0023
fff9
0000
0002
ffff
0008
0014
0007
fff6
000e
fff7
0002
fffc
fff6
fff3
0007
fffa
ffec
0000
0005
001b
001c
000e
0010
0005
fffe
ffee
0007
ffff
fff5
fffa
001a
0010
fffe
000a
0000
0001
fff8
0012
fffc
fff3
ffe9
fffe
ffed
fffb
0003
0002
ffed
0005
fff1
ffe5
0017
0021
0023
0007
fffd
0014
000d
000d
0037
0015
fff5
0005
0007
001d
0000
fff9
fff0
0037
000c
000f
fff0
fff9
000a
fff7
0016
fff2
ffd2
0013
ffef
fff3
0000
0001
0007
0027
000e
0000
fff8
000d
fff3
ffec
fff9
fff2
ffff
0019
fff5
fff4
fffb
fff6
fffe
fff3
fffb
fffb
fff3
fff2
000b
fff8
0009
000e
ffef
ffe5
0006
fffd
ffec
fffc
001e
fff4
fff3
fff7
ffff
001d
000c
fffb
0004
fff0
fffc
ffb2
ffc2
ffcc
ffdd
ffea
002d
002f
0006
ffd9
000e
0006
0015
0013
000f
ffe7
0006
ffdf
0023
fffa
ffed
0030
0013
fffa
fff4
0001
0002
0001
0017
001b
ffde
001b
0009
0002
0006
fff1
0001
ffec
fffe
fff4
fff8
fffe
0000
000f
0019
000b
0002
fffc
fffb
000a
ffe4
fffa
000c
ffcc
fff8
fff7
0008
002c
0015
0029
0003
0017
ffed
fff3
0000
000c
002e
0002
0004
0015
ffea
ffee
ffdf
ffe7
0004
ffec
001a
0003
0003
0008
0001
0008
fffd
0001
fffe
ffe6
fffc
001c
001f
ffee
fffa
0014
fff8
fff6
0002
fff1
ffe7
000f
ffe6
fff4
fff3
ffed
ffdf
fffb
001a
0001
000e
fff6
0017
0010
001c
0014
ffff
ffec
fffa
fffd
fffe
ffd9
fffb
fffc
0000
0000
fff3
0007
fff2
0015
0003
fffc
0017
0014
000f
0018
001f
fff7
ffef
ffe5
fffe
0012
fff4
fffe
001b
0007
0007
000c
fff4
ffeb
000b
0003
0003
fffb
fffb
ffe4
fff4
fff1
fff7
fffe
fffe
0000
0005
fffe
0002
fff5
0011
0000
0002
fff8
0005
fff1
fff5
0001
0015
0023
fffd
ffeb
000a
ffe2
fffc
ffe0
000d
fffc
ffed
0009
fff4
fffc
0012
0001
0008
000a
000f
0018
0003
000d
0009
ffff
0007
000a
0002
000a
001f
001b
0000
fff4
0011
0011
0020
000b
ffea
fff7
fff4
0011
0010
fff5
ffe2
fff9
fff1
fff6
0016
fff7
ffed
0012
001a
0000
fff5
0000
ffed
ffef
0016
0008
000d
fff4
0010
ffe6
ffec
fff5
fffd
0013
000e
0012
ffe4
ffe5
ffe6
001c
000b
0012
0002
000b
ffff
ffef
ffef
ffdc
fff1
0008
ffff
0003
0008
000d
0040
003c
0002
fffb
ffe4
ffea
002b
000a
001a
ffef
fffd
0006
fff9
001c
0002
fff7
fff0
ffe3
0003
001c
000b
fffb
0003
0000
fff0
fff0
fffc
0011
001c
0023
0002
ffef
0022
000e
0000
003a
0006
0003
fff7
fffb
ffbb
ffa2
ffcc
0001
fff3
0005
003e
0013
fff2
fff9
0001
fff0
001a
0026
0012
ffeb
ffed
ffef
000d
003b
0027
ffff
0023
002f
000f
0002
001e
002a
000b
000d
0010
0003
000d
000a
ffe5
ffdf
ffec
0001
0000
ffeb
0004
0001
000d
000b
fffb
ffea
000e
fff3
ffe0
fffc
ffeb
ffe3
fff4
fff9
fff7
fff6
ffce
fff9
0008
004e
ffe5
fffd
001c
ffec
0001
0035
001d
ffea
ffe4
ffea
fff9
0015
ffe1
0024
ffd7
fff3
fffa
0011
000f
ffef
ffff
ffd9
ffe3
fffb
0013
fffd
0010
0017
0017
fffe
fff4
0007
001c
001e
0026
000c
ffd7
ffee
000d
ff9c
ffd7
0008
0000
0004
001f
ffe7
fff2
0025
fff8
ffd6
0005
0039
001f
0002
ffeb
0004
ffd9
fffe
0002
000f
0012
fff1
003b
ffef
0002
fff0
0023
0011
002c
0004
0000
fff6
fffb
0011
0012
0005
ffe3
ffee
000b
0008
0001
ffee
0004
ffeb
0005
0003
0027
0002
fff4
0009
0009
0006
0001
000b
0000
fffb
0004
ffed
fffd
0003
fffc
000b
0010
0010
fffc
000d
ffea
0023
fffc
000f
fff1
ffff
001b
0000
0006
0018
0024
fffb
fffb
fff4
000d
0007
fff4
0001
0001
ffff
0014
0014
fffb
000e
ffff
0000
ffe6
fffe
fff1
fff5
0017
0003
ffd9
ffe1
0010
0028
fff8
000a
fff1
0005
ffe6
fffb
0008
000a
002b
fff0
fffe
0005
fff4
0026
001c
fffb
000c
0028
fff2
fff7
0001
0009
000a
000c
0016
fffa
ffff
fff7
ffea
ffea
0007
0008
ffe9
fff4
0006
fff8
000a
fffc
0005
fff9
fffc
ffe9
ffe3
fffa
ffe2
0000
fffc
fff8
0006
0003
000d
0021
001a
fffe
0012
0006
000d
0004
0001
0007
000b
fff5
ffee
fff5
002f
0012
fffe
fffe
0012
fff9
0008
ffe9
ffe6
fff5
001b
ffe5
fffb
fffa
0008
fffa
fff6
0001
fff2
0010
001a
fff4
0010
001d
0006
fffe
fffd
ffee
ffd0
fff0
000c
ffeb
0015
fff3
0027
ffef
ffe6
ffed
ffdb
ffef
000c
0020
000a
0004
fffb
ffeb
ffe0
ffe6
ffea
ffe1
ffeb
fff2
0002
ffb2
ffba
ffc5
fffa
0007
0011
ffe2
ffd2
fffd
0014
000a
fff0
0003
ffff
0004
0009
0000
0011
ffff
ffdd
0017
ffe8
ffd9
0000
ffff
0005
fff1
ffee
ffe9
ffe0
0003
fffd
fff2
fff3
0006
000b
0001
ffe5
0017
0005
000f
000d
fffd
0018
0012
0015
0003
fff7
ffff
ffff
fffc
fffc
fff6
0002
ffe9
0004
fffc
000d
fff7
ffee
fff2
000e
002c
fffb
fffb
ffe2
fff1
fff2
0015
0019
000b
ffe6
ffd7
ffff
fffe
ffff
000e
ffec
0006
fffa
0010
ffe7
0009
000e
fffb
fff4
fffa
fff8
ffe9
000f
0018
0009
fffd
0031
ffff
0004
fffc
0010
001d
0020
0011
fffc
0001
fff4
0015
ffe9
0012
ffe3
fff9
ffe5
fffa
0010
ffda
fff8
fffe
000a
fff2
ffff
002c
fff5
fffa
fffe
ffff
0003
fff1
000e
000c
fff5
000d
0011
0004
0002
fffa
fffa
fffd
fffb
ffdc
ffe1
ffd5
000b
0009
fff2
ffc0
ffec
0022
fff8
fffc
001e
fff5
ffff
0004
0011
ffe6
0002
fffb
0027
0018
0005
0005
fff5
0007
0028
0032
0023
0006
fffd
fffb
fffb
0015
0010
0015
0024
0015
fff3
000e
0000
001e
0051
ffdb
0021
0040
0017
000d
fff1
ffc5
fff4
002a
0005
fffd
fff8
ffe4
ffc0
fff6
0031
000b
0003
fff8
fff0
000a
0015
ffee
fff7
fff9
0002
0019
0021
001d
ffe7
ffee
fff0
0009
ffe7
0018
fff4
ffe9
fff4
000e
fffb
ffd6
ffe0
ffea
fff0
ffe7
0015
000b
ffde
ffcf
ffde
fff0
0000
002e
0011
fff2
0037
ffea
001d
000c
0022
fff1
ffff
0012
fffe
fff9
ffee
0018
ffe0
0007
0005
0022
fffb
fff5
ffe4
ffe9
000a
0002
ffdd
fff7
0008
0014
0000
0017
fffa
fff6
0000
fff7
002e
fffb
fffd
ffee
ffec
000b
ffef
0012
000b
fff9
0001
0000
0003
ffd0
001c
fffd
0013
0012
ffec
ffef
0003
0035
0009
001b
000c
fffb
fffb
000a
0050
0012
0013
0009
0026
0009
ffdd
000b
0001
fffc
0023
fff8
0006
fffc
0008
ffd8
002a
ffff
ffea
fff7
fff6
0022
0014
fffa
fff7
ffd0
0005
000b
fff6
ffe9
ffd5
ffb9
ffed
0001
0012
fffe
ffc9
ff99
ffa0
ffca
0002
0016
fff8
001f
0014
0019
0010
0003
fff1
fff9
0000
fff8
000d
0008
0015
ffe4
0019
000a
fffe
ffed
000f
001f
001b
002b
0000
0016
ffec
002d
002b
0000
0005
0004
ffe7
ffeb
ffce
ffe5
ffe1
ffff
ffe2
ffe9
ffba
ffef
ffea
fff1
ffd3
ffbb
0021
0044
001d
000e
ffdf
ffed
000a
002a
0028
ffec
0000
fffc
ffef
000b
0003
fff2
ffe7
fff8
001d
0011
ffea
0007
fff8
ffef
fff7
001f
001b
fff7
fffa
fffa
002c
0014
000f
000c
ffe9
fffc
fffc
fff7
ffe7
fff7
fff9
fff2
000b
0002
0013
0000
0014
0002
0009
0000
0013
0005
0012
fffe
0005
0001
0005
fff9
fff5
001b
fffb
fff9
0004
fffc
ffe9
0007
0001
0001
fff6
fffa
fffa
0005
fff3
ffe2
fff8
0014
fff9
0002
0016
000a
0012
0025
001e
fff2
fffd
fff2
ffe2
ffea
0002
fffd
fff2
0006
0009
0010
ffe3
0007
000d
fff3
000d
0007
0001
ffed
0005
fffd
0029
0006
ffff
0011
0015
0004
ffdb
ffff
0006
fff5
fff7
0006
ffe7
ffea
0002
fff4
000f
fff2
000c
0001
0014
ffde
0015
0004
fff5
fff0
0000
0020
fffa
0000
ffee
ffec
0000
000d
0001
ffec
fffc
0000
000e
001b
ffea
ffef
fff6
fff0
0019
0016
fff6
fffd
ffe6
fff8
0018
0007
fff6
0000
000c
ffea
fff9
000a
ffff
000f
ffed
fff5
0003
fffb
0012
ffda
fff9
0006
0011
000d
fffb
000e
0003
0024
0015
0002
0015
0003
fff5
ffe5
ffdb
0005
000d
fffb
ffd3
ffff
001b
0007
001d
0011
0001
ffdf
0006
0010
0001
0009
0000
fff8
0011
0002
ffe9
fff9
0003
fffb
fff1
0004
fffd
ffe2
fff6
0008
fff5
fff6
ffe2
000f
0000
0008
000f
fff6
000b
ffeb
0002
000f
0000
0011
0019
001a
0000
fffb
fff5
fff6
fffa
0018
000a
0004
fff9
0005
0014
0017
ffff
000f
0019
000c
fffc
ffd8
0008
ffcc
fff8
0000
0000
fffc
0001
fffe
0010
0000
000f
000e
ffe2
000e
0027
ffe6
000e
0002
fff3
0008
0002
0005
0012
001d
fff1
fffe
ffed
001e
0012
0017
fff1
000a
ffdb
ffe5
ffdc
fffa
ffea
0005
ffe7
0005
0003
000c
fff5
fffe
fff8
ffe4
0000
000a
fffa
0007
000a
0003
0009
0012
001b
0002
ffed
ffe8
fffc
fff3
ffff
fffc
000f
0017
ffed
fff8
000a
0000
0007
fffb
0012
fff3
fff7
fff3
0023
fff7
fffc
0014
0003
0022
fff6
ffe4
ffd5
fff1
ffdb
ffe0
ffef
fff6
ffef
fffa
fffc
0015
0007
fff8
fff0
fffc
001f
0007
fffe
fffc
0002
000f
000a
0026
000e
000c
fff1
ffe9
fff6
000b
0013
0003
fff1
fffe
ffec
ffeb
0009
fff8
fff8
fffa
0002
0000
0000
0011
0007
000e
0001
0015
000f
fff7
ffe8
0012
0006
0004
0010
0007
fff1
000b
002f
0005
ffea
ffec
002a
0008
0006
0009
ffd6
fff1
0013
0019
0018
fff7
fff6
ffe8
0018
0003
0001
0019
fffd
ffdd
0011
fff3
fffd
0007
fffc
001a
0007
0011
fff1
ffea
0002
ffec
0013
000f
0019
0001
0000
ffff
fff8
fff7
0015
ffea
ffe1
0002
0000
0006
0000
000b
0013
0013
000a
0013
ffee
0005
0007
0022
000d
0009
0018
0021
0001
0012
fff9
fff1
0007
fffd
0001
fff7
000e
0001
0013
fff5
001a
ffec
0003
fffb
0002
fff1
0005
002d
0003
000e
0005
0000
fffb
0009
001c
0007
0000
ffc6
ffc7
ffe6
0018
000d
0003
fffd
ffe2
ffc6
ffe4
ffff
ffe6
0011
002e
ffd7
ffbf
ffea
fffe
ffdd
0013
ffdf
ff9f
ffd5
0016
fff4
fff8
0012
ffcf
ff82
fff6
000b
fff7
fffb
0011
002c
fff6
001d
0013
0001
0000
0027
ffe7
fff2
0037
001d
000f
000e
0009
ffea
ffe6
ffff
fffa
ffef
0027
ffec
ffde
ffeb
ffec
ffee
0016
002e
001a
0002
001f
fff1
fff9
fff9
0014
0006
0024
0037
001a
0003
fff1
0013
0010
0000
000c
0008
001e
ffe0
fffc
fffd
0016
0000
fffb
fffc
0006
0002
ffec
fffd
0014
0004
fff9
fff9
0014
ffef
000a
ffec
0001
000d
0003
ffed
0007
0008
0000
fffe
000a
ffff
0004
fff7
ffe9
ffe3
001f
002e
0008
0000
0007
ffe3
ffff
0016
ffe9
ffdf
ffef
0011
0025
002e
0018
fffa
fff9
0022
0000
002c
003a
0005
ffe3
0009
0000
fff6
0005
fff1
0007
000f
fff6
0017
fffa
ffee
ffec
0004
fffc
fffd
fffd
ffeb
fff0
ffec
fff5
0000
0011
000c
ffda
fffa
0012
0019
fff3
0002
fff8
0003
0026
0036
0014
0000
fff3
fffa
0003
0003
0018
0003
ffec
fffa
ffea
0009
fff5
fff3
ffe5
fffe
0000
0012
0023
0009
ffed
0013
000e
0009
0013
fff3
ffb9
ffce
0017
fff6
fffe
ffeb
0004
fff2
0001
0018
0004
ffef
0000
0018
ffee
ffd3
fff5
0005
002e
0009
000b
0022
0022
0026
ffe7
0007
fff9
0025
0013
0037
0002
ffe1
0009
fff0
ffe2
0019
0005
ffff
ffdf
fffa
000b
0006
0019
000c
fffb
fffb
0007
002a
0010
ffe7
ffd5
ffdd
0022
fff7
0010
0004
fff9
ffe4
fffe
fffa
ffdf
001d
fff7
0013
0000
0001
0002
000d
0011
0009
0001
ffeb
0019
0005
fffc
0001
fff1
fff0
ffef
0008
0024
fff2
0001
fffe
ffef
ffcf
fffe
0015
ffff
0021
fffc
fff6
fffe
0016
0006
0014
002b
ffff
0001
ffe7
ffe7
000f
ffe4
fffb
fff2
ffbf
ffc2
ffdd
0005
0000
fffa
ff98
ffd6
0000
0013
0018
001f
0016
fffc
0017
001a
fff8
fff8
fffb
0006
0004
0016
0021
0010
ffe4
0000
001d
0010
ffe6
0013
ffff
0007
ffdf
0010
0004
fff1
0006
ffec
0012
0015
0021
fff5
fff0
fff9
fff4
0011
000a
0006
ffe0
fff5
fff9
ffea
fffa
001b
000d
ffec
ffd8
fff2
ffed
fff6
fff1
fff0
ffef
0004
0040
0033
fff3
0004
0007
fffa
0033
fff9
fff6
ffeb
fffa
0027
0014
0025
fffe
000a
fffd
0007
0017
0002
001b
000b
002f
0046
0004
fffc
0002
ffef
fff7
ffea
001a
fffd
0007
fff9
000a
0011
0006
0008
0005
0015
0011
0010
0006
ffed
fff4
fff1
ffff
fff7
0011
fff5
0007
ffec
000c
fff1
fff7
0004
ffea
0013
0019
0001
0009
0014
0020
0014
0022
0012
ffeb
ffff
fffb
ffff
0015
0013
0004
0012
001e
fff0
ffe8
fffc
fff0
0003
0008
0029
ffef
ffee
001e
ffe8
0015
0028
001a
fff7
ffeb
fff7
fff9
001f
000c
0025
ffe4
fff2
002c
0028
fff8
ffd6
0001
0013
0023
0019
0016
fffb
ffd9
fff9
ffde
fff9
001c
000a
fffe
ffd9
0003
0037
fff3
0006
fff7
0004
0000
001e
0004
fff9
ffdb
ffc5
fff1
0018
fff4
ffde
fff2
0013
001f
0002
fffb
0006
ffe5
fff3
ffef
0004
fff3
ffe9
fff5
0022
0026
0003
ffeb
0008
0011
0010
0001
0020
ffdd
0013
fff0
ffff
0004
fff6
0007
0002
fffe
ffe3
0009
ffea
fff9
0010
fff9
0009
0002
0001
001a
0006
fffa
0000
0001
000c
0005
0002
ffff
0005
ffef
0013
0013
0010
000b
000b
fffa
fff2
0001
fff4
0001
0002
ffec
ffeb
fff9
0021
fff9
0002
001d
fff8
0009
0008
ffff
fff9
fffc
0011
ffee
0014
0001
000a
0006
0008
002d
fff4
0009
0015
ffff
000f
002b
fffb
fffa
fff8
ffec
0005
000e
0003
0007
ffeb
0007
0001
fffe
000d
0018
0000
fff3
0010
000c
000b
0017
0012
fffe
000c
fff5
0008
0000
ffe5
ffe8
ffe2
0005
fffd
fff9
ffe9
001e
fff4
0012
0005
fff1
ffec
fff5
0009
0009
0032
0007
fffa
0004
0010
0016
0010
000b
fffb
fff1
ffed
fffe
fffc
0002
fffe
0017
ffde
fff9
ffff
000a
0009
0010
fff2
fff2
fff2
0004
ffd2
0000
0014
fff0
0009
ffe6
fff4
001c
fffb
0008
fff1
0012
0005
0021
fff9
ffc5
000f
ffed
fffb
0030
0004
ffeb
fff1
0021
0008
0015
001a
0022
fff9
fffa
ffe6
0000
fff4
0000
ffe2
0019
fff0
ffec
ffe6
0008
0014
000f
fff9
000a
0000
fffe
0001
001e
0002
ffee
ffe6
fff8
0021
000c
0008
0005
fffa
fff8
ffdc
0010
000a
fffb
0000
0001
fff4
fff7
fff8
0016
ffe3
0017
fffd
ffdf
0026
0005
fffa
001e
000a
fffb
000e
0007
0010
002c
0017
fff6
ffae
ffe4
fffc
0000
ffce
ffe5
0013
0032
001a
0017
ffe6
ffd2
ffbd
0000
fff8
fff7
0006
0006
0004
001f
0031
000e
0006
0000
fff2
0002
0008
0028
fff1
ffe8
ffd3
001d
001d
0027
0010
ffe3
ffe5
0005
000d
0017
001f
fff2
000e
000b
000c
ffe1
fff2
fff4
ffe3
0004
0005
fffa
0001
fff5
000e
0020
000b
ffff
000d
fffc
000f
0016
0017
fff3
fffb
ffe8
0015
0009
0014
0000
fff8
0010
ffe4
ffe4
0001
ffef
0009
000b
fff5
001d
0009
fffe
0006
fffc
0012
001f
0031
0004
fffd
fffe
001f
0006
001e
0014
0005
fff3
fff9
fffb
0012
000c
0007
fffc
0002
0000
001b
0007
fff7
000a
fff2
0004
0009
000f
0010
ffd2
0012
ffee
0002
ffec
fff6
fffa
fffe
ffd7
fff7
ffef
0009
fff9
0005
fffd
fff1
fff5
000e
0012
fffb
000e
000a
001c
fff9
fffd
001d
0023
0005
000b
0013
0008
ffe3
ffeb
ffe8
fff8
0001
0012
fff8
fff2
0011
000a
0016
000e
001b
ffee
0009
fff6
ffe5
ffde
ffeb
0015
fffe
fff5
fffe
0012
000a
0009
000a
0000
000e
fff0
0007
ffff
ffde
001b
000d
000a
0000
fffd
001e
0001
0002
000f
000c
0019
0024
0019
0020
000b
fff6
0010
fff2
0009
0000
ffda
fff8
fff3
000d
ffe3
001a
fff1
0011
0006
ffe2
000a
0010
ffff
fffb
0001
fff8
fff6
001c
0000
0019
0015
ffe4
0001
fff0
0002
ffdb
0003
fff1
0020
0014
0014
ffeb
ffee
fff1
000d
0002
0016
0002
0005
0000
0019
ffe4
0010
001e
0005
fffe
000e
ffd7
ffdd
0012
0012
0020
ffe3
0016
0020
fff2
fff6
0000
fff7
ffc4
ffe8
ffe7
0015
ffff
0015
0003
ffee
ffdc
fff5
0015
ffe0
0003
fffa
fff3
fffd
001f
fff6
fffb
ffee
fff6
0022
0033
fffd
ffe2
0004
000a
fffa
0002
000a
000c
fff7
ffee
002c
fff4
ffda
fff6
ffea
0000
fffe
000b
fff3
001b
0013
fff1
0007
000c
fffa
0008
0005
0017
fffb
fff7
001f
fffc
0008
0000
fff3
000a
fffd
0009
0006
0002
fff4
fff3
ffeb
0013
0007
0008
0003
0008
ffe6
fff9
000f
0000
002c
fff6
0006
0004
000f
0013
0013
0029
ffda
0000
ffec
fffa
fffb
ffdc
0007
ffe0
fffc
fff6
0016
fffc
ffed
ffff
fff5
000e
0008
0006
0008
0016
ffef
fff7
0023
0016
0000
0007
fff1
fff4
0006
0007
fff8
ffe5
000e
0009
ffe5
ffcf
fff1
000d
fffb
fff1
fff5
000b
fff0
fff7
fff7
0014
0002
0011
0012
ffe7
0000
fff5
fff9
0005
fffc
fff4
ffec
000f
000d
0014
ffe7
000a
fff6
fff4
0004
0008
000a
0004
fff8
ffef
0004
0011
ffff
fffc
fffb
0002
fff8
fff4
fff7
0008
ffef
000a
fffc
fff3
fff1
0009
fffc
000a
ffe9
fffb
0009
fff3
fffe
ffef
000e
0018
0001
002a
fff6
ffff
fff6
ffe8
fff6
fff3
fff7
fff3
ffcf
ffd5
fffa
0009
fff6
0001
ffee
fff5
0036
002b
fff4
0000
fff3
000e
002a
0029
0015
ffd5
fff8
0017
ffe4
0011
0006
ffe8
fff7
0019
001c
000a
0007
ffff
ffe5
ffe7
000e
0035
000f
0025
ffe9
0013
0013
fff9
0008
ffd6
fff9
ffed
fff4
fffc
0008
0023
0019
000b
0016
000a
ffed
ffce
0038
000a
fffd
000e
ffde
fffb
ffcc
0009
fffe
0017
fff3
fff3
fff8
fff7
000d
fffd
fff4
fffb
000a
000b
fff1
0008
fffa
0001
ffec
fffc
001d
001c
000c
0014
ffe2
0011
0009
0003
000e
0015
0013
000e
fffd
0001
ffdf
fff1
fffc
0007
fff9
ffd8
fffc
001c
0031
0012
fffd
ffbb
ffd5
ffec
0038
0005
0020
000c
fff1
0019
001e
0004
0013
0005
fff0
fff8
002c
003e
0007
ffd1
ffd9
fff2
0015
0012
0005
fffb
fff6
ffea
fffc
fffa
001d
fff2
ffff
0012
000a
ffec
fff7
ffe3
fff8
001a
ffee
0024
0000
000c
000f
0017
ffe8
ffcd
002c
fffe
0007
0003
ffde
ffd1
ffdd
000a
000e
0000
ffe3
ffdf
fff1
fff4
001a
0001
000d
ffe0
0020
0008
ffd8
fff2
000d
0020
ffe5
0003
0019
000f
ffe9
ffed
0021
0005
fffe
fff4
000d
0001
fffc
0000
ffe7
ffee
ffc5
fff4
fff9
0013
fff9
fffd
ffec
ffdd
0009
0002
fff8
0013
0000
ffa4
0003
0021
0021
ffeb
fff4
fff6
0019
0001
0018
002b
ffff
0000
fff4
001f
fff7
ffe9
fffd
fff9
000a
0003
fff7
fff5
fff0
0007
0014
0005
fff8
fff5
0003
0000
0003
ffdc
ffed
0007
0000
fff9
fff3
fffc
ffff
fffd
0002
0005
0002
000b
0018
ffef
fffe
0014
fffd
fffa
0005
0004
ffee
001a
000d
0005
0013
fffc
0001
001e
ffed
0004
0002
fff1
fffb
fffb
000d
0000
fff0
fffa
0008
0017
0010
fff5
0005
fffd
0002
fffc
0010
0020
0006
fff2
ffea
fff1
ffff
fff7
0003
ffdf
ffec
fff7
0000
0018
0029
001e
fff0
0002
ffe7
ffe5
001b
000d
0005
0008
0003
000e
0012
0003
fff6
000b
0003
fff9
0006
0022
fff1
ffed
0007
0008
0021
0001
fffa
000f
ffeb
0020
fff4
0004
000c
0002
fff8
ffff
0020
0000
0011
001b
fff4
fffb
fffe
0012
001e
0008
ffff
fffd
000d
0000
0004
ffed
fff2
ffee
fff9
0002
fff1
fff3
001d
0022
0004
0001
0015
0010
001e
0012
0012
000b
fff0
0007
0006
001a
000c
0012
0020
fffa
fffc
001e
0006
ffe5
ffdd
ffff
ffe6
0004
ffd6
fff2
0012
ffec
ffea
fffc
fff3
0000
0007
0008
ffed
ffee
0031
0030
0010
000b
002a
0025
ffeb
000e
0023
0024
0014
fff9
fffa
fff1
fff7
001d
0012
fffc
ffe2
fff7
001e
fff7
0013
ffde
fffa
0020
0042
0037
0014
000f
0011
fffb
002c
0021
002b
0003
fffc
ffdb
0006
fffa
000a
ffe3
fff8
0001
0020
0026
001b
fff4
0001
fff2
0005
fff2
fff2
fff4
0000
000a
0005
000c
0003
0013
0004
0025
000c
fffd
0005
fff3
fffb
0011
0002
ffde
0004
000e
fff9
fff5
fffd
fff5
ffe9
fff7
fff6
0002
0001
0002
fff8
ffff
ffff
0000
002a
fffe
0001
fff0
fff1
0004
0004
0022
000e
0015
fff7
fffe
ffef
fff9
0006
fffa
0000
ffe9
ffe3
ffe2
ffec
fff8
fff4
0002
0002
0009
0000
001a
ffef
fff9
fff5
0000
000c
fff6
000b
0029
000e
0003
fff0
ffee
0007
fff6
0000
0016
000c
fffa
ffed
fffa
0005
001a
0014
0014
0000
ffeb
0011
0014
0020
0006
0014
ffff
0000
000e
fff6
ffec
fff9
0004
0016
0002
ffca
ffda
0001
001e
0003
001d
ffef
fffa
0021
0026
0019
001c
0058
0013
0008
0057
0046
fff3
0014
0022
001e
ffdf
fff6
ffe5
fff8
0020
ffdf
0005
ffc3
ffdc
000e
0010
fffb
fffc
001a
fff4
ffc7
ffe9
fff4
ffe9
0002
ffee
ffc7
ffa2
ffa1
fff7
fff4
0015
ffe2
000a
0000
ffb4
0022
0002
0006
ffeb
fffb
ffee
0013
0000
fffd
000f
fff8
001c
0013
fffd
0004
000a
0029
001c
fff2
ffef
fffa
0008
000f
0029
000e
0003
0000
000f
0007
fff6
ffec
ffea
ffca
ffb6
fff3
ffec
0017
001e
0012
fffb
0014
0011
fff4
fffb
0006
001c
ffdf
ffe5
ffe4
fff7
ffff
0007
fff6
0009
ffcc
0002
001f
fff9
ffeb
000e
fffd
fff0
0019
0017
fff5
0007
fff7
ffe7
0002
0021
000b
0015
fff3
0001
0000
0016
0004
000c
ffd8
0007
fffe
0018
000c
0012
0012
fffa
0009
002f
001e
0026
0029
0044
0002
ffea
0007
ffdb
0016
0032
002f
fffc
0019
0007
fff3
ffee
0027
0000
0012
0009
002c
002f
0001
0016
002e
0006
0004
000b
001c
000f
002d
001a
0017
0011
fffc
fff6
0003
0048
0008
fff8
ffef
0003
0016
fff6
0001
0008
fff0
000a
000e
0044
0024
0017
000c
fff0
fff2
ffe6
000f
0017
0000
ffec
000a
ffc9
0007
ffe6
0018
fff0
ffed
fff8
ffcf
ffe2
fff7
000a
0026
0012
fffb
ffcd
ffec
0006
003e
0030
000d
fffa
0012
001e
ffff
000c
0000
0009
0002
001d
000b
001a
0004
0002
0001
000b
000f
0028
0035
0035
ffea
fffb
0010
0000
000d
fffd
0005
ffe3
ffcb
0019
000d
fff0
000a
ffaa
ffe6
ffe0
fffc
fff9
0000
ffdb
000e
0005
0012
fff4
0001
ffff
0000
002f
0030
0015
002b
0004
fff4
0000
000c
0001
0012
000f
ffff
0000
000e
ffeb
0014
0003
001f
0001
000d
ffec
0001
001b
0008
fffd
fffa
0000
0004
0000
fff4
fff0
0007
001f
0002
ffff
0017
fffb
0005
0021
0016
0008
fff6
000a
fff4
0003
002a
0008
0008
ffe5
fff7
fffb
0002
0000
fffa
0006
0000
fff9
0004
fff7
ffff
0009
ffdc
fff0
0007
ffd2
0000
0001
0018
0000
fff2
0001
0009
0012
0007
ffff
0000
ffe4
0002
fffc
fff6
fffc
0000
000b
fff5
0022
0013
0004
0008
0009
0000
0010
0007
fffb
000b
fffe
0013
001b
0006
0019
0005
0019
0006
fff0
0002
0006
0004
0005
fff0
ffe4
ffe4
ffde
fff2
fffe
ffec
001f
0017
0002
fffe
fffb
001c
001e
ffff
0019
fff5
0002
fff9
fff0
0011
fff6
fffa
0014
000d
fffe
000d
0023
0007
0009
001c
0002
0001
000f
ffef
0008
0004
0006
0006
0001
0007
0000
000f
0004
000d
0007
0001
001a
fff9
fffb
fff9
0005
fff0
000c
000c
0000
000b
0009
0006
fff5
ffef
001b
0000
0017
fff5
000f
0012
0006
000e
0027
0001
0012
fffe
0013
ffea
001b
000e
0010
fff4
0004
0002
0005
0007
fff8
000b
0013
ffeb
0005
fffb
fff0
0001
000f
000b
fff7
fff5
fff2
fffd
0001
fff6
0000
ffee
fffa
000d
fffd
0003
000d
fff6
0004
0002
fffe
0000
0006
fff7
0000
0000
0015
0017
fff8
0012
0014
fff5
fff5
0001
ffdb
0027
fffb
000d
fff8
0001
002f
0007
0003
0004
ffff
0000
0017
000a
000f
ffea
fff5
001e
fffc
0019
fffa
fffd
0013
fff6
0016
fff4
fffc
fff3
ffff
0001
ffff
001d
0008
fffb
ffdf
ffe6
0002
0005
0010
0005
fff1
fffb
fffd
0011
000e
fff9
fffb
0014
000c
000f
000a
fffe
ffe4
0017
0013
0012
0018
fffd
fff1
000e
0010
0014
0002
0002
ffe2
0023
fffc
0007
fff4
001c
0014
fffe
0001
fff8
fffa
000b
001c
0003
0000
0008
0007
0012
0027
fffa
0002
0009
000a
0012
fff9
0008
000d
fff4
fff9
fff6
0003
0011
000c
0008
001d
fff9
0006
000a
0003
0014
fffc
000a
000a
0011
0010
0022
fff6
fff1
ffed
ffe1
0005
0002
000d
ffea
fff7
0003
fffc
0006
0007
ffda
0019
ffed
0011
fff9
0018
0003
000a
fff9
000e
fffc
0014
0007
fffa
fff1
0001
ffdc
fff7
000a
ffe3
fffa
fffa
0017
fffb
fff3
0002
0015
0010
0006
001a
ffff
0006
ffff
fff8
0022
0013
000a
0015
0009
ffc1
fff7
0024
fff3
000b
ffff
fff9
ffd9
0016
001c
fff6
ffeb
0000
000f
fff3
fff9
0000
fff5
0006
fff5
0000
0019
0006
000e
fff0
ffec
ffed
fff2
0027
0009
fff8
0014
ffea
fffd
ffe8
001b
ffe9
ffe9
0012
ffff
0018
0017
0016
0013
ffed
0004
fff1
0002
0027
0018
001d
0008
0005
0010
ffff
fff6
fffc
000f
fff9
0000
fff3
0013
0018
0025
fff8
0011
ffe9
fffe
002e
0030
0047
000b
fff3
000b
0025
fffb
0029
0038
fffd
ffff
001a
ffe6
ffe3
0000
0038
0005
0006
fff3
ffb6
ffd2
0000
ffe3
fff5
fffa
fffc
ffd9
002c
0007
ffe1
001e
0012
fff9
ffea
0011
fffb
ffeb
ffe8
fffe
fff3
0004
ffe1
0004
ffeb
0006
0000
0003
fffd
0005
fff9
fff5
fff9
fff3
fffe
0016
0007
fff3
ffe7
fff7
0010
fff8
002f
0011
0010
ffe0
ffeb
fff4
0009
0008
0011
000c
000a
fffc
000b
fff1
fffe
ffe5
0004
000f
0027
000b
fff3
000c
0005
fff9
0010
0019
000f
0007
fffc
0008
0003
000c
002b
0027
000f
0017
fff5
0000
ffe2
fff3
fff6
002c
0026
ffd2
ffed
ffc2
fff1
0005
002b
0018
ffff
ffe9
ffe1
0003
0014
000c
0000
000c
ffee
fff5
0032
001f
fffe
fff6
ffe0
0000
0027
0032
001d
0003
0007
fff1
ffec
0004
0003
fffc
000c
001c
0000
fffd
ffed
ffee
002a
0002
fff7
0002
0001
0008
0001
0025
0022
fffd
0009
ffea
0014
0021
ffef
0007
0006
fff6
fff2
0014
000c
0009
000a
fff2
0002
ffea
0021
000a
000b
ffcd
fff8
0006
0016
0015
001b
0000
0023
0001
000a
000c
0013
0011
000f
0000
0008
ffff
ffe0
fffe
0003
0016
0010
0000
ffd0
fff1
ffde
0012
0008
fff4
ffef
fffd
ffe3
ffec
0008
0018
0005
000a
fff9
ffee
0005
001c
0013
000e
000d
ffe0
fffc
fffe
002b
ffff
0008
fff9
0002
000a
001f
0018
fffa
ffc2
ffd9
fff1
ffff
0017
fffc
0015
fffe
ffff
ffd4
fffd
fff6
ffdc
ffee
ffe5
ffff
001f
002a
0010
000d
0012
fffd
ffee
fffa
0008
0013
0002
fffa
fffe
fffd
ffff
fffb
001b
0008
0001
fffd
ffff
0024
000e
000c
0000
fff3
0012
ffeb
0000
0000
000c
0037
fff5
fffb
0007
ffee
0006
fff7
001b
0010
001d
fff8
0007
ffe8
fff7
0008
001a
fff7
0000
ffee
ffef
fffb
0010
0003
0012
fff1
fffb
ffdb
ffca
0000
0024
002c
ffea
fffe
ffdc
ffc7
fff6
0010
000a
000a
0001
fff0
0004
000a
0006
0022
0017
001d
fff5
0002
0019
0004
0008
0010
0002
fffd
0009
0008
fff5
fff5
0001
fffb
0012
001b
fffa
ffec
0007
000c
0017
fff1
000f
000d
000c
0010
000c
fff7
ffef
fff4
ffe0
fff4
000d
0005
0006
0027
fffe
0006
0000
001c
ffec
0005
0018
0013
000c
0024
ffce
ffeb
000a
0019
003b
0058
000a
000c
fff8
0016
000d
0000
0000
fff4
ffde
fff7
fff7
0011
0016
0027
0013
fffb
ffe5
0014
0027
0002
0015
ffff
fffc
0007
fff6
000c
0011
0037
000b
fffb
0000
0006
0006
fff2
000b
ffef
fff5
000a
fff8
0018
fff5
ffe3
0005
0016
0007
0007
0022
ffd3
ffdd
0011
fff9
000f
0015
0007
ffe2
001d
000d
0009
fff8
0000
ffe9
fffb
fffe
0010
0004
0008
fffa
ffe6
ffdb
fff0
0002
fffd
0003
fffa
ffda
ffbc
ffe2
fff0
0004
0002
0005
ffe2
fff8
ffdc
003d
002a
002c
0018
0027
002e
002d
005f
fff9
001a
0013
000e
ffe3
0012
0057
003a
0044
0017
ffe4
0014
004e
ffed
fffb
fff1
fff0
fff9
0017
fff5
fff4
0000
0021
000f
0023
fffb
0012
0004
000f
0011
0006
0008
fffc
0012
000c
0000
001d
0016
0001
0010
0017
000d
0003
0005
0012
fff5
0019
ffea
0007
0005
fff8
fffe
000f
fff3
fff8
0001
0000
0023
fffb
0004
fff1
000f
fff7
fff4
fff6
fffe
0000
ffff
0005
0000
0015
0002
fffc
fff8
fff5
fff3
0010
000f
0002
ffef
fff6
fffa
000d
ffff
0022
001c
0011
000b
0003
000b
0024
0016
fffd
fff9
0004
000b
0011
0007
0005
0001
ffe8
fffb
fffa
0026
002f
fff4
fff1
fff3
ffe6
0001
0000
fffa
0009
ffdf
0001
0000
0017
ffef
000c
ffff
fffe
0000
fff3
001f
fffc
000f
ffe1
fffb
fffd
0011
002b
001d
ffed
0001
fff2
fffe
ffea
001b
003d
fff5
000e
0007
000b
0033
0010
002c
fff5
ffff
ffe3
0012
0006
fffa
001a
fff1
fffa
000f
0004
0012
001e
ffed
fff8
fffe
fff2
0005
fff0
fffb
0008
fff6
0007
ffe2
fffc
ffe4
0001
fffb
0006
ffeb
fffa
0009
ffe9
ffe7
ffd5
ffea
000b
000d
0013
000e
0015
ffe2
0016
0009
002a
002a
0005
0018
000f
0047
ffff
001d
0002
000d
ffd6
000f
0048
fffe
0014
fff1
ffde
ffd8
fff9
ffe8
000b
fff4
fffd
000a
fffb
fff5
0012
fffd
000a
fff9
0006
0016
0005
0005
ffe8
0026
0009
fffc
0009
0015
0014
0006
0011
fffa
ffd7
0016
fff5
fff9
0019
001f
001d
0001
ffee
ffeb
fff8
0013
fffa
fff7
0001
ffff
ffeb
ffea
0011
0012
0000
fffd
fff4
000a
fff2
fffa
ffef
ffe5
ffba
ffde
0004
ffe5
0002
004d
ffe8
ffba
ffe4
ffdf
0004
0020
001d
ffe9
ffef
ffc3
ffd0
fff8
fffc
001e
0000
fff6
ffe9
fffe
fff4
000b
0019
002e
0015
0000
000b
0021
0014
0015
fff8
ffe5
ffec
0011
0025
0003
0017
fff4
0000
0008
0003
fffe
fffe
ffec
fff4
fff4
ffeb
0000
001f
ffeb
fffb
fff6
001e
000d
000f
fff4
fff5
ffff
0006
002c
0014
001f
0006
000c
fff1
ffe3
001b
0017
0013
000f
0003
fff6
0010
fff8
fffc
000e
fffd
000d
0006
0013
001f
0004
0008
fff1
0002
fffc
fffe
0021
fff7
000e
fff1
fff5
fff6
ffed
ffe8
fff3
fff7
000c
0009
fff1
0011
0015
0026
001c
0010
0000
fff4
fff7
001c
fffc
0015
002e
fff2
000f
001c
ffe5
001c
0033
0011
0000
0017
fffb
0019
fff3
0019
0009
0010
0019
0004
fff0
ffff
ffe1
0010
0001
0014
0012
0007
fffa
0000
0011
ffff
fffc
fff7
0018
001d
fff5
0000
fff7
fffa
fff8
fff5
ffe7
0014
001f
000f
0000
fffb
000c
ffef
ffe4
fffc
0004
0003
fffa
fff7
0004
000c
0017
0011
0022
0012
001c
0034
ffff
0032
fff7
0014
0005
0012
0027
0045
001b
ffeb
fffe
fffd
fff1
ffe8
ffee
fff9
ffe8
ffeb
fff9
ffee
0002
ffd3
ffee
fff8
0005
0019
001e
0023
fff3
000f
fff8
fff0
fff9
0008
0014
fff7
ffe7
ffff
ffee
fffb
0004
0002
ffff
0006
0001
ffe6
fffc
fffc
002b
0007
fffd
0000
fff5
0005
0001
001c
0025
0006
0008
002f
000e
0011
ffe7
0000
fff6
0000
ffee
ffd4
ffd4
ffec
ffd3
ffde
fff9
0025
001d
fffe
ffee
000b
000c
0004
002d
ffe5
fff6
000e
0004
0021
fff7
0018
000f
0002
001d
0005
ffef
ffe2
fffe
0019
0011
000c
ffe6
0021
0025
000b
000f
0004
ffe9
0007
ffde
001a
0001
000f
fffa
fffa
000b
ffff
ffe1
0000
fff6
0002
0008
ffef
fffe
fff0
0005
0009
0018
0020
0012
0014
fff5
ffde
fff1
000d
002e
000a
fff9
0000
fff1
ffec
000e
002b
000f
ffd2
000e
ffdf
fff2
0025
000a
fff7
fffc
000d
fff1
0000
0008
001b
0034
000f
fff5
ffff
0000
0002
000b
0008
fff9
0004
fff5
ffd7
ffea
ffec
000a
0025
0000
0002
000b
0003
000a
0003
000f
ffde
ffed
fff8
ffed
0016
ffea
ffe9
ffff
fff3
002e
fff6
000c
fff4
fff0
fff7
ffff
0004
fff8
000e
0004
0004
0025
fff6
0004
fffb
fff9
000c
fffd
001f
fffc
0029
fff6
ffec
0020
ffe9
fff3
000b
fff2
ffe8
000e
fffb
0003
0009
ffee
fff8
0012
0011
0000
fff6
fff8
fff5
fff1
000e
0005
0010
0001
0006
000c
ffeb
fff3
0027
fff3
ffdd
001e
fff0
0002
0008
000c
000c
fff0
000c
0001
fff0
fffd
0013
0004
fff3
0013
fff2
0001
fffb
fff2
001e
fffe
0010
0007
0009
fff5
0005
0001
fffa
0015
ffe1
0004
0005
fffd
0001
0003
0021
0011
0011
0002
0003
0014
ffe0
fff7
001c
000b
002f
ffe5
0004
ffdd
0018
ffde
fffc
ffef
000f
ffff
ffdc
ff9c
ffd7
ffe7
ffe9
001d
001b
0003
0017
001b
0021
0033
0007
0000
0010
fff2
fffc
fff9
000c
fffe
0008
000a
fff0
ffcf
0007
001a
0029
000e
002b
0006
fffc
001b
0004
001f
002b
0056
000d
0007
0005
fff7
0006
002d
0027
0003
0012
fffd
002c
ffe9
ffef
ffe9
0012
0002
0014
000a
0001
0009
ffee
fffa
000c
0002
0009
001c
0028
0009
0000
0002
0012
0000
0000
0002
ffe7
fffc
0028
000e
ffe5
ffed
ffcd
ffe9
000b
0039
fff2
ffe7
ffe1
ffcf
000f
fff7
002b
0021
fffe
ffeb
0026
002a
fffd
000f
000d
0014
0006
0023
0014
0004
001b
fff0
0009
ffec
0012
000f
0019
0003
0002
ffff
fff8
000f
fffe
000c
ffd8
0000
fffe
fff5
001c
0017
0012
0003
0002
0021
0010
002b
003a
fffb
fffd
0004
0002
003b
0048
0055
fff2
000a
000c
ffe7
001f
000e
0026
fffc
fff8
fffb
0015
fff1
ffdd
0017
0005
0007
001a
001c
0004
0016
0018
0001
0008
0012
fff8
002f
0012
000c
fff7
ffff
ffe6
fff1
fff7
fff5
fff6
0009
0004
0044
0028
0021
0035
ffd0
fff5
ffe7
000f
ffdf
0030
ffd0
fffa
000c
fff5
fff6
fffb
0000
ffd2
0006
0002
0024
ffea
0013
ffe7
001c
0018
0000
0000
0000
0027
000a
000f
001f
000c
0000
fffc
ffe7
fff8
0012
0016
ffdd
fff7
ffea
ffec
0008
fffe
000c
000b
0009
0006
000d
0017
0002
0009
fff4
0008
fffd
fffe
0010
0016
fff1
0007
0003
0009
0007
001b
fff5
fffd
000f
0014
ffef
000d
fff7
ffef
0002
0011
fffd
fffc
ffff
0006
002f
0002
fff5
0003
fff3
000a
fffb
0007
0011
0004
fff8
0018
fffa
0004
ffd0
ffee
000d
0010
fff1
ffce
ffb3
ffe9
0017
fffc
000b
fffe
ffea
ffe5
ffe4
000d
ffee
000c
000b
0014
0003
0027
0022
ffe8
000a
0001
fffc
0016
0002
002b
0015
ffef
0010
fff7
fffe
0007
fffb
fff2
0000
fff2
0009
fff8
fff6
0012
fffa
ffeb
ffe3
fffd
ffff
000b
0010
fff1
0012
0010
0018
0012
0008
000d
0002
0001
000e
fffe
fff7
ffff
ffda
fff7
000a
0003
ffe1
fff4
ffe5
000e
fffb
ffff
0003
000b
0010
fff9
0004
000d
0010
0004
0000
0006
0003
ffe3
0027
002a
fffc
ffef
fff7
000f
0006
fffb
ffe1
ffc1
fffc
fff1
fff8
0012
fff6
fff3
ffd6
fffa
000c
0017
0019
0026
ffd2
ffde
ffd2
0017
001a
0000
0018
0003
000d
fffd
000d
001c
001c
ffff
000e
0015
fff5
000b
ffff
0020
0001
ffe9
000f
0004
fffe
001b
001b
ffe7
001f
0013
000a
fff1
0001
000a
fffd
0008
0018
0033
0013
fffd
000a
0004
ffef
ffeb
fffc
0018
0011
0014
ffff
0018
ffff
000e
0017
fffa
fff2
fffe
fffe
fffd
ffec
0022
001a
fffa
fff4
000d
0015
0005
fff9
ffff
000b
001e
fff4
0000
ffff
0000
ffe7
0004
000d
0010
0000
0004
0006
ffef
ffeb
0008
ffe6
0013
fffc
fff7
fff4
0001
0001
ffee
fff6
0000
ffe7
fff9
0004
000f
0021
0002
0010
0003
0006
fffe
000f
fff7
fff2
0004
0007
fffa
ffe9
fffc
0005
fffa
000e
fff1
0005
fffb
000d
000b
ffe5
0018
001b
0005
000c
0018
0007
0002
ffeb
fffd
fffb
0007
fff4
ffee
0011
0018
000b
0009
000c
0005
0009
000a
000a
001d
fff7
fff1
0017
0000
0007
000d
fff2
ffdf
ffee
0002
fffc
0016
ffe7
ffc8
0020
ffed
0002
fffc
fff7
0009
0019
000f
002f
0017
0017
000c
0019
0021
ffe0
0010
ffdf
0010
000b
0022
fffd
0000
fffd
fff9
fffc
0008
0001
fffa
ffe8
ffed
fffc
fff2
ffd5
ffea
ffcf
ffb1
ffd9
0005
0000
000e
fff7
ffe3
ffdc
ffe9
fffd
000e
002a
fff8
fff6
0010
fffa
fffd
0005
0000
001f
000a
0012
000b
0002
002f
0049
0001
0022
fff7
0013
ffef
ffec
0012
fffc
fff7
fffc
0002
000f
ffe5
ffc7
ffe4
fff6
0007
fff5
fff2
ffe2
0010
0007
0016
000f
ffdc
0016
000c
000d
0044
0017
ffe1
ffd8
fff4
000c
0004
fff5
0000
fff6
ffe5
0002
ffec
0005
fff4
fff6
ffed
0001
0000
ffed
0006
fff8
ffff
000b
0012
000f
000e
001d
000d
fff6
ffe3
0000
0021
ffe3
ffed
fffa
ffe0
ffeb
ffcb
ffe0
0016
fff4
fff9
fff5
fff8
ffe4
ffe5
0006
fffa
000d
001c
0016
fff1
ffe8
fff8
0002
ffff
0007
0016
ffe2
0000
ffe6
ffe6
fffa
fffd
fff9
fff9
000b
0000
0006
0010
0001
fff3
0010
0007
0005
fffa
0007
ffef
0000
0008
0010
fff4
ffd8
fff5
fff2
fff5
fffc
001f
